<unk>	0
<s>	0
</s>	0
<0x00>	0
<0x01>	0
<0x02>	0
<0x03>	0
<0x04>	0
<0x05>	0
<0x06>	0
<0x07>	0
<0x08>	0
<0x09>	0
<0x0A>	0
<0x0B>	0
<0x0C>	0
<0x0D>	0
<0x0E>	0
<0x0F>	0
<0x10>	0
<0x11>	0
<0x12>	0
<0x13>	0
<0x14>	0
<0x15>	0
<0x16>	0
<0x17>	0
<0x18>	0
<0x19>	0
<0x1A>	0
<0x1B>	0
<0x1C>	0
<0x1D>	0
<0x1E>	0
<0x1F>	0
<0x20>	0
<0x21>	0
<0x22>	0
<0x23>	0
<0x24>	0
<0x25>	0
<0x26>	0
<0x27>	0
<0x28>	0
<0x29>	0
<0x2A>	0
<0x2B>	0
<0x2C>	0
<0x2D>	0
<0x2E>	0
<0x2F>	0
<0x30>	0
<0x31>	0
<0x32>	0
<0x33>	0
<0x34>	0
<0x35>	0
<0x36>	0
<0x37>	0
<0x38>	0
<0x39>	0
<0x3A>	0
<0x3B>	0
<0x3C>	0
<0x3D>	0
<0x3E>	0
<0x3F>	0
<0x40>	0
<0x41>	0
<0x42>	0
<0x43>	0
<0x44>	0
<0x45>	0
<0x46>	0
<0x47>	0
<0x48>	0
<0x49>	0
<0x4A>	0
<0x4B>	0
<0x4C>	0
<0x4D>	0
<0x4E>	0
<0x4F>	0
<0x50>	0
<0x51>	0
<0x52>	0
<0x53>	0
<0x54>	0
<0x55>	0
<0x56>	0
<0x57>	0
<0x58>	0
<0x59>	0
<0x5A>	0
<0x5B>	0
<0x5C>	0
<0x5D>	0
<0x5E>	0
<0x5F>	0
<0x60>	0
<0x61>	0
<0x62>	0
<0x63>	0
<0x64>	0
<0x65>	0
<0x66>	0
<0x67>	0
<0x68>	0
<0x69>	0
<0x6A>	0
<0x6B>	0
<0x6C>	0
<0x6D>	0
<0x6E>	0
<0x6F>	0
<0x70>	0
<0x71>	0
<0x72>	0
<0x73>	0
<0x74>	0
<0x75>	0
<0x76>	0
<0x77>	0
<0x78>	0
<0x79>	0
<0x7A>	0
<0x7B>	0
<0x7C>	0
<0x7D>	0
<0x7E>	0
<0x7F>	0
<0x80>	0
<0x81>	0
<0x82>	0
<0x83>	0
<0x84>	0
<0x85>	0
<0x86>	0
<0x87>	0
<0x88>	0
<0x89>	0
<0x8A>	0
<0x8B>	0
<0x8C>	0
<0x8D>	0
<0x8E>	0
<0x8F>	0
<0x90>	0
<0x91>	0
<0x92>	0
<0x93>	0
<0x94>	0
<0x95>	0
<0x96>	0
<0x97>	0
<0x98>	0
<0x99>	0
<0x9A>	0
<0x9B>	0
<0x9C>	0
<0x9D>	0
<0x9E>	0
<0x9F>	0
<0xA0>	0
<0xA1>	0
<0xA2>	0
<0xA3>	0
<0xA4>	0
<0xA5>	0
<0xA6>	0
<0xA7>	0
<0xA8>	0
<0xA9>	0
<0xAA>	0
<0xAB>	0
<0xAC>	0
<0xAD>	0
<0xAE>	0
<0xAF>	0
<0xB0>	0
<0xB1>	0
<0xB2>	0
<0xB3>	0
<0xB4>	0
<0xB5>	0
<0xB6>	0
<0xB7>	0
<0xB8>	0
<0xB9>	0
<0xBA>	0
<0xBB>	0
<0xBC>	0
<0xBD>	0
<0xBE>	0
<0xBF>	0
<0xC0>	0
<0xC1>	0
<0xC2>	0
<0xC3>	0
<0xC4>	0
<0xC5>	0
<0xC6>	0
<0xC7>	0
<0xC8>	0
<0xC9>	0
<0xCA>	0
<0xCB>	0
<0xCC>	0
<0xCD>	0
<0xCE>	0
<0xCF>	0
<0xD0>	0
<0xD1>	0
<0xD2>	0
<0xD3>	0
<0xD4>	0
<0xD5>	0
<0xD6>	0
<0xD7>	0
<0xD8>	0
<0xD9>	0
<0xDA>	0
<0xDB>	0
<0xDC>	0
<0xDD>	0
<0xDE>	0
<0xDF>	0
<0xE0>	0
<0xE1>	0
<0xE2>	0
<0xE3>	0
<0xE4>	0
<0xE5>	0
<0xE6>	0
<0xE7>	0
<0xE8>	0
<0xE9>	0
<0xEA>	0
<0xEB>	0
<0xEC>	0
<0xED>	0
<0xEE>	0
<0xEF>	0
<0xF0>	0
<0xF1>	0
<0xF2>	0
<0xF3>	0
<0xF4>	0
<0xF5>	0
<0xF6>	0
<0xF7>	0
<0xF8>	0
<0xF9>	0
<0xFA>	0
<0xFB>	0
<0xFC>	0
<0xFD>	0
<0xFE>	0
<0xFF>	0
▁t	-0
in	-1
▁a	-2
▁s	-3
he	-4
▁w	-5
ou	-6
▁f	-7
ing	-8
es	-9
▁c	-10
nd	-11
re	-12
▁i	-13
▁m	-14
ha	-15
er	-16
▁b	-17
▁I	-18
ee	-19
▁to	-20
an	-21
▁the	-22
or	-23
▁d	-24
▁l	-25
▁and	-26
on	-27
▁fee	-28
▁feel	-29
en	-30
ll	-31
▁p	-32
it	-33
ay	-34
▁can	-35
▁th	-36
om	-37
ea	-38
us	-39
hat	-40
et	-41
▁is	-42
▁it	-43
▁n	-44
le	-45
▁o	-46
▁y	-47
▁you	-48
at	-49
▁in	-50
is	-51
ow	-52
▁e	-53
ke	-54
▁ha	-55
out	-56
gh	-57
▁he	-58
▁h	-59
▁g	-60
▁be	-61
▁li	-62
ver	-63
▁we	-64
ve	-65
▁u	-66
al	-67
▁re	-68
▁ma	-69
ght	-70
ic	-71
▁of	-72
im	-73
our	-74
ly	-75
op	-76
ar	-77
▁that	-78
ct	-79
ut	-80
▁Y	-81
▁our	-82
ld	-83
ot	-84
▁It	-85
▁ab	-86
ings	-87
▁about	-88
▁for	-89
▁Yes	-90
oo	-91
▁st	-92
all	-93
st	-94
▁whe	-95
▁do	-96
▁us	-97
▁som	-98
▁when	-99
▁T	-100
▁su	-101
lp	-102
pp	-103
▁help	-104
ess	-105
ind	-106
very	-107
her	-108
se	-109
ink	-110
nder	-111
ter	-112
ri	-113
ed	-114
▁think	-115
ul	-116
▁see	-117
ad	-118
▁so	-119
ion	-120
▁like	-121
ore	-122
oy	-123
ould	-124
▁how	-125
ch	-126
ent	-127
ir	-128
▁j	-129
ally	-130
ust	-131
ound	-132
▁on	-133
ith	-134
▁with	-135
ear	-136
id	-137
ful	-138
ce	-139
▁That	-140
▁not	-141
fe	-142
ort	-143
ant	-144
eop	-145
eople	-146
imes	-147
▁more	-148
▁people	-149
pe	-150
ood	-151
ays	-152
▁en	-153
▁happ	-154
ng	-155
▁every	-156
▁un	-157
▁me	-158
▁but	-159
▁make	-160
▁my	-161
▁mak	-162
ring	-163
▁somet	-164
▁D	-165
and	-166
▁k	-167
▁tr	-168
ther	-169
▁are	-170
day	-171
▁H	-172
▁wor	-173
▁bet	-174
▁r	-175
▁things	-176
▁under	-177
ci	-178
hing	-179
▁fr	-180
mp	-181
ill	-182
▁better	-183
stand	-184
▁Do	-185
qu	-186
▁this	-187
▁understand	-188
▁cha	-189
▁pl	-190
one	-191
▁sh	-192
▁today	-193
▁com	-194
reat	-195
▁really	-196
▁sound	-197
joy	-198
▁enjoy	-199
▁makes	-200
right	-201
▁find	-202
king	-203
▁al	-204
▁imp	-205
▁feelings	-206
▁they	-207
ope	-208
▁some	-209
ite	-210
▁qu	-211
▁W	-212
▁ex	-213
▁sounds	-214
ight	-215
ble	-216
▁ne	-217
▁an	-218
ell	-219
ove	-220
▁hope	-221
▁seem	-222
any	-223
▁have	-224
ol	-225
ain	-226
ions	-227
▁sha	-228
▁good	-229
ime	-230
as	-231
▁sad	-232
ure	-233
▁wo	-234
ten	-235
▁wonder	-236
▁wh	-237
ies	-238
▁sm	-239
▁sometimes	-240
ice	-241
ting	-242
▁time	-243
▁out	-244
▁your	-245
▁dis	-246
▁har	-247
▁day	-248
un	-249
▁or	-250
▁chang	-251
▁way	-252
peci	-253
▁just	-254
get	-255
▁will	-256
▁ev	-257
▁pr	-258
ents	-259
are	-260
▁sur	-261
pr	-262
if	-263
▁sp	-264
ide	-265
▁joy	-266
▁hard	-267
▁fear	-268
eep	-269
▁at	-270
▁sa	-271
▁con	-272
▁their	-273
▁feeling	-274
▁import	-275
▁other	-276
eas	-277
▁ag	-278
▁very	-279
ello	-280
▁Hello	-281
ac	-282
ry	-283
▁could	-284
▁tal	-285
▁feels	-286
▁if	-287
ong	-288
ur	-289
ose	-290
gether	-291
▁important	-292
os	-293
▁ta	-294
▁am	-295
▁happy	-296
ness	-297
▁str	-298
▁even	-299
pris	-300
▁many	-301
▁together	-302
▁often	-303
▁surpris	-304
aus	-305
▁mom	-306
▁dif	-307
▁love	-308
ely	-309
▁thou	-310
▁S	-311
▁all	-312
▁there	-313
▁es	-314
▁bright	-315
side	-316
▁everyone	-317
ge	-318
ause	-319
▁bec	-320
▁ar	-321
▁especi	-322
▁especially	-323
▁thought	-324
▁nice	-325
▁as	-326
▁should	-327
▁what	-328
ive	-329
av	-330
▁new	-331
ish	-332
▁up	-333
▁does	-334
ook	-335
▁days	-336
▁bit	-337
▁bring	-338
ree	-339
ead	-340
ves	-341
▁keep	-342
▁moments	-343
▁would	-344
eed	-345
ways	-346
▁always	-347
▁cl	-348
▁quite	-349
ren	-350
th	-351
eather	-352
thing	-353
▁want	-354
▁A	-355
▁change	-356
ough	-357
able	-358
▁go	-359
▁because	-360
▁creat	-361
ard	-362
▁M	-363
▁weather	-364
ie	-365
▁sun	-366
▁small	-367
▁these	-368
▁helps	-369
▁ea	-370
art	-371
▁such	-372
▁might	-373
▁seems	-374
▁mu	-375
▁af	-376
▁id	-377
fort	-378
rat	-379
act	-380
▁from	-381
▁everything	-382
▁too	-383
lect	-384
me	-385
il	-386
▁them	-387
▁something	-388
ick	-389
▁fun	-390
▁those	-391
pect	-392
▁life	-393
▁act	-394
▁much	-395
ue	-396
▁talk	-397
flect	-398
▁try	-399
▁nat	-400
ig	-401
ace	-402
feren	-403
ers	-404
tle	-405
ark	-406
▁bad	-407
est	-408
▁lit	-409
▁outside	-410
ast	-411
▁ang	-412
pl	-413
▁sc	-414
▁pro	-415
▁differen	-416
▁others	-417
▁agree	-418
▁wish	-419
ile	-420
end	-421
▁br	-422
▁great	-423
▁around	-424
lean	-425
ustrat	-426
▁frustrat	-427
▁little	-428
▁v	-429
▁plan	-430
ate	-431
▁du	-432
▁care	-433
▁pos	-434
▁What	-435
▁de	-436
▁need	-437
ect	-438
▁share	-439
bs	-440
▁gr	-441
▁ch	-442
ories	-443
▁bea	-444
iness	-445
oc	-446
▁over	-447
▁look	-448
han	-449
ation	-450
ous	-451
now	-452
orm	-453
riend	-454
▁during	-455
▁any	-456
▁friend	-457
▁was	-458
▁clean	-459
olut	-460
▁stay	-461
olutely	-462
▁times	-463
▁beaut	-464
▁nature	-465
hy	-466
▁Abs	-467
▁Absolutely	-468
▁heav	-469
▁surprising	-470
ity	-471
ving	-472
eri	-473
be	-474
ment	-475
ft	-476
▁get	-477
▁happen	-478
▁Som	-479
▁wonderful	-480
▁aw	-481
its	-482
arm	-483
▁less	-484
fect	-485
▁now	-486
▁frustrating	-487
▁idea	-488
▁light	-489
▁create	-490
gust	-491
▁inter	-492
▁disgust	-493
▁thoughts	-494
▁heavy	-495
ack	-496
▁ways	-497
▁ever	-498
▁fl	-499
▁right	-500
iv	-501
ors	-502
▁lovely	-503
▁work	-504
▁co	-505
iting	-506
earn	-507
▁making	-508
esting	-509
lie	-510
▁by	-511
etimes	-512
▁Sometimes	-513
▁Why	-514
aybe	-515
▁angry	-516
▁app	-517
mb	-518
▁sadness	-519
▁happiness	-520
ier	-521
▁food	-522
ms	-523
▁big	-524
▁warm	-525
▁posit	-526
▁know	-527
▁reflect	-528
▁learn	-529
▁comm	-530
▁while	-531
▁sharing	-532
▁each	-533
▁heal	-534
▁che	-535
▁take	-536
▁belie	-537
▁interesting	-538
▁mind	-539
▁lead	-540
▁wat	-541
▁soon	-542
▁friends	-543
▁F	-544
▁tough	-545
▁E	-546
▁wal	-547
▁different	-548
▁exp	-549
▁sim	-550
ily	-551
ds	-552
▁How	-553
ine	-554
▁comfort	-555
am	-556
▁kind	-557
▁positive	-558
ome	-559
▁again	-560
mber	-561
▁believe	-562
set	-563
▁strong	-564
▁than	-565
▁cal	-566
aces	-567
▁ad	-568
ple	-569
▁calm	-570
ange	-571
▁lives	-572
▁inst	-573
▁res	-574
member	-575
▁safe	-576
ps	-577
ult	-578
ward	-579
▁changes	-580
ocus	-581
nect	-582
▁without	-583
▁fut	-584
▁world	-585
▁brings	-586
▁lift	-587
▁future	-588
▁mem	-589
erien	-590
▁experien	-591
▁R	-592
▁connect	-593
own	-594
ary	-595
ared	-596
▁sit	-597
▁health	-598
▁spir	-599
▁has	-600
▁rel	-601
iful	-602
▁after	-603
▁beautiful	-604
age	-605
▁dark	-606
so	-607
▁mo	-608
sel	-609
▁also	-610
ations	-611
▁supp	-612
▁focus	-613
▁simple	-614
▁remember	-615
▁instead	-616
ices	-617
▁The	-618
ag	-619
▁fears	-620
▁being	-621
▁true	-622
▁quick	-623
▁rem	-624
eal	-625
▁why	-626
ces	-627
▁did	-628
ities	-629
ny	-630
eace	-631
iz	-632
▁peace	-633
ert	-634
▁disc	-635
fic	-636
▁down	-637
▁mood	-638
▁op	-639
▁Many	-640
de	-641
▁speci	-642
▁talking	-643
▁well	-644
▁away	-645
reci	-646
▁hear	-647
▁memories	-648
▁strange	-649
▁spirits	-650
▁lat	-651
▁gu	-652
ull	-653
▁sk	-654
▁eas	-655
oom	-656
▁unc	-657
▁dr	-658
ire	-659
ave	-660
▁grow	-661
▁cho	-662
▁special	-663
▁col	-664
▁Ex	-665
als	-666
▁walk	-667
actly	-668
ich	-669
▁long	-670
▁no	-671
ficult	-672
▁difficult	-673
▁remind	-674
▁disgusted	-675
▁upset	-676
▁scared	-677
▁appreci	-678
esh	-679
▁support	-680
▁brighter	-681
▁bl	-682
▁Re	-683
ooking	-684
▁Exactly	-685
to	-686
▁worry	-687
ild	-688
▁which	-689
▁expect	-690
ise	-691
▁play	-692
▁ef	-693
▁situ	-694
▁affect	-695
▁impr	-696
si	-697
whe	-698
▁park	-699
oth	-700
▁proble	-701
▁gl	-702
▁quickly	-703
ax	-704
▁heart	-705
▁still	-706
▁worri	-707
not	-708
ist	-709
▁show	-710
▁fresh	-711
el	-712
▁exc	-713
▁appreciate	-714
ormal	-715
▁sen	-716
▁read	-717
inding	-718
▁clear	-719
▁Finding	-720
▁normal	-721
▁understanding	-722
▁saf	-723
▁commun	-724
▁C	-725
ance	-726
▁bu	-727
urn	-728
ty	-729
ex	-730
ching	-731
▁air	-732
▁rain	-733
▁relax	-734
uly	-735
▁sl	-736
▁sense	-737
een	-738
isten	-739
oin	-740
▁truly	-741
llen	-742
▁sunny	-743
▁Maybe	-744
▁wee	-745
▁made	-746
▁into	-747
▁stories	-748
du	-749
▁activ	-750
▁challen	-751
avor	-752
▁thr	-753
▁Reflect	-754
▁fearful	-755
▁night	-756
▁start	-757
▁let	-758
▁guess	-759
▁choices	-760
▁improve	-761
▁one	-762
▁cannot	-763
vir	-764
viron	-765
▁environ	-766
▁wr	-767
ak	-768
▁scary	-769
ix	-770
▁Reflecting	-771
▁mess	-772
▁places	-773
app	-774
▁thinking	-775
▁difference	-776
▁come	-777
▁ideas	-778
▁tast	-779
▁cheer	-780
▁listen	-781
▁back	-782
▁someone	-783
ety	-784
pected	-785
▁flow	-786
▁don	-787
▁unex	-788
▁pre	-789
ck	-790
▁inside	-791
xt	-792
▁next	-793
fin	-794
▁favor	-795
▁challeng	-796
▁se	-797
▁bo	-798
▁ind	-799
lic	-800
itely	-801
▁actions	-802
▁lately	-803
finitely	-804
wn	-805
ertain	-806
▁environment	-807
ious	-808
kay	-809
▁car	-810
▁okay	-811
▁tea	-812
▁favorite	-813
▁problems	-814
▁unexpected	-815
▁place	-816
pend	-817
▁enjoyable	-818
▁having	-819
fore	-820
▁compl	-821
▁before	-822
▁L	-823
▁may	-824
▁maybe	-825
mot	-826
▁iss	-827
▁lea	-828
▁last	-829
▁real	-830
easant	-831
▁mat	-832
az	-833
▁sol	-834
ures	-835
ning	-836
▁cr	-837
oud	-838
▁des	-839
▁activities	-840
▁ste	-841
▁space	-842
▁finding	-843
▁ho	-844
sible	-845
les	-846
▁expl	-847
▁surprised	-848
tr	-849
sh	-850
▁sw	-851
▁Have	-852
selves	-853
▁per	-854
▁off	-855
▁amaz	-856
▁lo	-857
▁anim	-858
▁reflecting	-859
▁been	-860
▁colors	-861
▁You	-862
▁here	-863
▁alone	-864
▁wind	-865
▁dir	-866
▁its	-867
▁happier	-868
ling	-869
▁inv	-870
▁through	-871
▁P	-872
▁isn	-873
▁brighten	-874
▁bre	-875
▁same	-876
▁anger	-877
eet	-878
▁la	-879
▁worries	-880
▁flowers	-881
▁forward	-882
ues	-883
▁use	-884
▁wa	-885
▁face	-886
ence	-887
▁complet	-888
ap	-889
▁storm	-890
iet	-891
▁amazing	-892
▁end	-893
▁going	-894
▁water	-895
▁mis	-896
▁joyful	-897
hank	-898
▁Thank	-899
▁cold	-900
▁cheerful	-901
▁open	-902
▁rec	-903
▁deep	-904
▁news	-905
▁emot	-906
▁understandable	-907
▁who	-908
ass	-909
gg	-910
▁beauty	-911
▁saw	-912
▁plans	-913
arden	-914
▁enjoying	-915
▁minds	-916
hes	-917
air	-918
▁experiences	-919
head	-920
shine	-921
▁da	-922
ize	-923
▁kindness	-924
▁animals	-925
vers	-926
▁ahead	-927
▁mus	-928
▁old	-929
▁turn	-930
▁quiet	-931
▁garden	-932
easy	-933
▁experience	-934
ool	-935
ical	-936
▁uneasy	-937
▁fam	-938
▁effort	-939
ming	-940
▁build	-941
ks	-942
▁healthy	-943
▁emotions	-944
▁tre	-945
▁sunshine	-946
▁discus	-947
▁sec	-948
▁Th	-949
▁learning	-950
▁own	-951
ully	-952
▁discuss	-953
row	-954
▁situation	-955
▁taking	-956
▁pat	-957
ory	-958
▁looks	-959
▁both	-960
▁happening	-961
▁had	-962
▁meal	-963
▁pic	-964
▁sure	-965
▁smell	-966
▁issues	-967
▁conf	-968
ked	-969
▁val	-970
▁sky	-971
▁dirty	-972
▁ourselves	-973
▁unpl	-974
red	-975
ang	-976
▁joys	-977
▁moment	-978
oor	-979
▁We	-980
▁lot	-981
ne	-982
other	-983
▁never	-984
igh	-985
▁stre	-986
▁man	-987
▁hearts	-988
▁unk	-989
▁notic	-990
▁common	-991
round	-992
▁daily	-993
▁trying	-994
▁lighten	-995
▁gloom	-996
▁plant	-997
▁lau	-998
▁ease	-999
▁hand	-1000
cess	-1001
▁spend	-1002
▁safety	-1003
whel	-1004
▁bus	-1005
aking	-1006
▁overwhel	-1007
ually	-1008
come	-1009
▁pu	-1010
▁exciting	-1011
oun	-1012
gn	-1013
▁music	-1014
self	-1015
▁book	-1016
▁ac	-1017
▁comp	-1018
▁break	-1019
gy	-1020
▁pain	-1021
▁near	-1022
▁shin	-1023
sp	-1024
▁helpful	-1025
▁upsetting	-1026
▁av	-1027
▁completely	-1028
▁wrong	-1029
▁stress	-1030
▁att	-1031
▁noticed	-1032
ows	-1033
▁vis	-1034
▁drink	-1035
▁surround	-1036
▁week	-1037
▁gloomy	-1038
▁smile	-1039
▁part	-1040
▁dec	-1041
ts	-1042
▁art	-1043
▁home	-1044
acing	-1045
▁best	-1046
▁unpleasant	-1047
▁resp	-1048
▁tri	-1049
where	-1050
▁sn	-1051
▁cause	-1052
press	-1053
▁solut	-1054
haps	-1055
▁ann	-1056
▁convers	-1057
▁respect	-1058
▁disgusting	-1059
▁easier	-1060
▁possible	-1061
▁doesn	-1062
mor	-1063
light	-1064
▁annoy	-1065
▁fix	-1066
▁wel	-1067
oors	-1068
▁ener	-1069
▁forget	-1070
▁community	-1071
oose	-1072
▁worse	-1073
▁express	-1074
▁loud	-1075
▁unf	-1076
den	-1077
▁lost	-1078
▁year	-1079
▁using	-1080
over	-1081
estion	-1082
▁ro	-1083
ip	-1084
▁miss	-1085
▁must	-1086
▁pers	-1087
▁B	-1088
▁looking	-1089
ject	-1090
▁keeping	-1091
▁hold	-1092
ash	-1093
▁ca	-1094
▁ru	-1095
▁heard	-1096
▁wast	-1097
▁cooking	-1098
▁surprises	-1099
omfort	-1100
▁family	-1101
▁move	-1102
ouds	-1103
▁explore	-1104
▁cons	-1105
▁past	-1106
▁clouds	-1107
▁staying	-1108
oid	-1109
ail	-1110
▁smo	-1111
▁definitely	-1112
▁adv	-1113
erv	-1114
▁avoid	-1115
▁shows	-1116
▁tas	-1117
▁fright	-1118
ural	-1119
▁outd	-1120
ments	-1121
▁most	-1122
ign	-1123
▁conc	-1124
▁situations	-1125
▁respon	-1126
▁trees	-1127
ired	-1128
▁full	-1129
▁disapp	-1130
ating	-1131
▁slow	-1132
▁challenges	-1133
▁natural	-1134
▁surprise	-1135
olve	-1136
▁anx	-1137
▁wise	-1138
▁gets	-1139
▁enc	-1140
▁yes	-1141
▁frighten	-1142
▁add	-1143
kes	-1144
▁she	-1145
fully	-1146
ud	-1147
▁mean	-1148
▁watching	-1149
terday	-1150
▁stick	-1151
▁spaces	-1152
▁aware	-1153
▁el	-1154
▁surroundings	-1155
▁safer	-1156
▁stru	-1157
▁yesterday	-1158
▁where	-1159
▁effect	-1160
▁everywhere	-1161
▁impact	-1162
▁im	-1163
▁discover	-1164
▁uncertain	-1165
read	-1166
▁Those	-1167
hang	-1168
ons	-1169
▁overwhelming	-1170
▁unw	-1171
▁welcome	-1172
▁facing	-1173
▁energy	-1174
ourage	-1175
▁annoying	-1176
duce	-1177
▁reading	-1178
ount	-1179
▁le	-1180
▁treat	-1181
ems	-1182
res	-1183
alking	-1184
▁color	-1185
▁sweet	-1186
▁unfair	-1187
▁events	-1188
▁waste	-1189
▁seeing	-1190
▁realize	-1191
▁peaceful	-1192
▁bir	-1193
▁fo	-1194
▁notice	-1195
▁ign	-1196
erious	-1197
▁lighter	-1198
▁busy	-1199
▁ri	-1200
ets	-1201
▁prop	-1202
▁watch	-1203
▁insp	-1204
▁involve	-1205
ab	-1206
▁plants	-1207
▁disappoin	-1208
morrow	-1209
▁anxious	-1210
▁tomorrow	-1211
▁ref	-1212
▁delic	-1213
▁hur	-1214
▁jour	-1215
▁taste	-1216
▁tired	-1217
ather	-1218
▁hab	-1219
▁chat	-1220
▁trou	-1221
▁challenging	-1222
form	-1223
▁top	-1224
▁indeed	-1225
▁playing	-1226
elt	-1227
▁felt	-1228
▁perfect	-1229
ra	-1230
▁listening	-1231
iew	-1232
kend	-1233
▁imag	-1234
▁anyone	-1235
▁waiting	-1236
▁words	-1237
▁weekend	-1238
ince	-1239
▁uncomfort	-1240
▁since	-1241
ney	-1242
ention	-1243
com	-1244
ises	-1245
▁journey	-1246
▁ones	-1247
▁doing	-1248
▁pow	-1249
oss	-1250
▁bal	-1251
▁certain	-1252
▁mor	-1253
▁deal	-1254
▁walking	-1255
▁involved	-1256
ame	-1257
less	-1258
▁reas	-1259
▁mix	-1260
▁become	-1261
▁warmth	-1262
hed	-1263
▁uncomfortable	-1264
▁De	-1265
▁matter	-1266
▁spending	-1267
▁frightening	-1268
▁N	-1269
▁yet	-1270
ips	-1271
▁Definitely	-1272
blic	-1273
▁dang	-1274
▁thank	-1275
▁public	-1276
▁Did	-1277
▁tasks	-1278
▁strugg	-1279
ush	-1280
▁run	-1281
▁concer	-1282
▁view	-1283
▁St	-1284
ach	-1285
▁were	-1286
▁beha	-1287
▁say	-1288
▁serious	-1289
▁easily	-1290
▁messy	-1291
▁visit	-1292
▁getting	-1293
▁usually	-1294
▁takes	-1295
▁toward	-1296
▁project	-1297
▁unkind	-1298
oring	-1299
ivity	-1300
▁ignore	-1301
▁fall	-1302
raid	-1303
ated	-1304
▁hopeful	-1305
▁working	-1306
▁fru	-1307
▁later	-1308
▁person	-1309
▁steps	-1310
▁question	-1311
▁meals	-1312
▁refres	-1313
▁high	-1314
▁leave	-1315
▁room	-1316
▁habits	-1317
▁ear	-1318
▁reg	-1319
▁give	-1320
▁tried	-1321
ock	-1322
mer	-1323
osp	-1324
▁mov	-1325
ghter	-1326
▁worried	-1327
▁rest	-1328
▁comes	-1329
▁items	-1330
▁choose	-1331
ake	-1332
▁soft	-1333
▁afraid	-1334
▁mist	-1335
▁careful	-1336
ames	-1337
▁needs	-1338
▁solutions	-1339
▁encourage	-1340
▁stop	-1341
▁stronger	-1342
ider	-1343
▁eat	-1344
▁power	-1345
▁breat	-1346
uck	-1347
▁used	-1348
aying	-1349
▁mar	-1350
▁trash	-1351
ade	-1352
pes	-1353
▁living	-1354
▁manage	-1355
▁connected	-1356
▁hid	-1357
▁focusing	-1358
▁prot	-1359
▁communic	-1360
iqu	-1361
▁cu	-1362
▁dri	-1363
ently	-1364
fer	-1365
▁Talking	-1366
hange	-1367
▁step	-1368
▁keeps	-1369
▁story	-1370
▁confus	-1371
▁asking	-1372
ular	-1373
▁seas	-1374
vi	-1375
▁O	-1376
tions	-1377
▁fill	-1378
▁advent	-1379
▁morning	-1380
▁shining	-1381
ives	-1382
▁easy	-1383
▁behavi	-1384
▁noises	-1385
▁disappointing	-1386
▁attention	-1387
gan	-1388
▁else	-1389
▁seen	-1390
▁neg	-1391
▁weight	-1392
▁live	-1393
led	-1394
▁dog	-1395
▁harder	-1396
▁reduce	-1397
▁overall	-1398
▁unapp	-1399
▁her	-1400
▁cur	-1401
▁balance	-1402
hen	-1403
▁refreshing	-1404
▁contr	-1405
akes	-1406
um	-1407
▁glad	-1408
▁consider	-1409
▁storms	-1410
▁put	-1411
▁found	-1412
▁pol	-1413
▁proper	-1414
ru	-1415
ew	-1416
▁concern	-1417
aw	-1418
▁bod	-1419
ual	-1420
ooked	-1421
▁decis	-1422
ken	-1423
▁fir	-1424
ited	-1425
▁low	-1426
oney	-1427
iling	-1428
▁comforting	-1429
em	-1430
▁fast	-1431
▁happens	-1432
▁outdoors	-1433
▁handle	-1434
▁conversations	-1435
▁prep	-1436
▁danger	-1437
▁win	-1438
▁There	-1439
▁Taking	-1440
idy	-1441
mmer	-1442
▁shad	-1443
▁myself	-1444
▁cleaning	-1445
▁connections	-1446
▁noise	-1447
sib	-1448
▁games	-1449
nic	-1450
▁gre	-1451
▁chan	-1452
▁laughter	-1453
▁reminds	-1454
▁child	-1455
▁trick	-1456
duc	-1457
▁Ind	-1458
▁unexpectedly	-1459
▁uniqu	-1460
▁Indeed	-1461
▁money	-1462
▁spread	-1463
▁control	-1464
ger	-1465
▁options	-1466
▁pleasant	-1467
▁dist	-1468
▁goes	-1469
▁wear	-1470
here	-1471
▁wet	-1472
▁ready	-1473
▁deeply	-1474
▁hurt	-1475
▁pict	-1476
▁unique	-1477
▁pati	-1478
▁carry	-1479
▁inspire	-1480
▁tidy	-1481
▁inform	-1482
▁picnic	-1483
▁join	-1484
▁funny	-1485
▁reason	-1486
ervous	-1487
▁anything	-1488
▁smooth	-1489
▁nervous	-1490
▁caus	-1491
▁inc	-1492
▁mon	-1493
▁organ	-1494
▁fly	-1495
▁creating	-1496
▁meet	-1497
eeting	-1498
▁coming	-1499
ains	-1500
▁bro	-1501
▁close	-1502
▁first	-1503
▁enough	-1504
▁vi	-1505
▁fin	-1506
▁negat	-1507
▁harm	-1508
▁choice	-1509
osing	-1510
ines	-1511
▁cope	-1512
▁pract	-1513
▁Per	-1514
▁short	-1515
ket	-1516
▁acc	-1517
▁shared	-1518
ife	-1519
▁importance	-1520
rp	-1521
▁pri	-1522
▁streng	-1523
▁protect	-1524
▁far	-1525
▁longer	-1526
▁building	-1527
▁secre	-1528
tract	-1529
▁rough	-1530
▁sticky	-1531
▁towards	-1532
by	-1533
ict	-1534
oup	-1535
▁sharp	-1536
▁snack	-1537
mosp	-1538
▁atmosp	-1539
▁Sha	-1540
ality	-1541
▁birds	-1542
▁spring	-1543
▁calming	-1544
▁atmosphere	-1545
▁tou	-1546
▁blue	-1547
▁tall	-1548
▁tasty	-1549
▁cont	-1550
▁free	-1551
▁caring	-1552
key	-1553
ven	-1554
coming	-1555
▁Perhaps	-1556
▁regular	-1557
▁te	-1558
▁pass	-1559
▁poor	-1560
▁ruin	-1561
▁path	-1562
▁meeting	-1563
▁desp	-1564
▁dry	-1565
▁mixed	-1566
▁moving	-1567
▁Tr	-1568
▁soci	-1569
▁topic	-1570
▁once	-1571
▁frustration	-1572
omes	-1573
▁Change	-1574
▁perhaps	-1575
▁relaxed	-1576
ized	-1577
ature	-1578
▁cloud	-1579
▁behavior	-1580
▁unin	-1581
▁event	-1582
▁winter	-1583
pt	-1584
▁clot	-1585
▁despite	-1586
eat	-1587
sibil	-1588
under	-1589
▁cook	-1590
▁team	-1591
▁writing	-1592
esent	-1593
▁affects	-1594
▁only	-1595
▁thick	-1596
▁Staying	-1597
▁bloom	-1598
▁looked	-1599
▁check	-1600
▁summer	-1601
ealing	-1602
▁eating	-1603
▁ju	-1604
▁alive	-1605
▁foods	-1606
▁materi	-1607
▁comfortable	-1608
▁lone	-1609
▁shadows	-1610
▁wait	-1611
▁problem	-1612
▁hop	-1613
▁area	-1614
▁aut	-1615
▁swim	-1616
▁design	-1617
▁delight	-1618
ork	-1619
▁responsible	-1620
▁bur	-1621
▁heat	-1622
▁broken	-1623
▁ground	-1624
oint	-1625
▁cat	-1626
▁uns	-1627
▁laugh	-1628
▁value	-1629
▁In	-1630
▁kit	-1631
▁sleep	-1632
▁growth	-1633
▁secure	-1634
▁Let	-1635
▁tight	-1636
▁stuck	-1637
▁children	-1638
llow	-1639
cessary	-1640
▁communication	-1641
▁My	-1642
▁quality	-1643
▁unclean	-1644
▁delightful	-1645
ase	-1646
▁react	-1647
▁troub	-1648
zy	-1649
▁skin	-1650
▁clearly	-1651
cts	-1652
▁Sharing	-1653
▁another	-1654
▁delicious	-1655
▁det	-1656
▁brightly	-1657
ills	-1658
▁fre	-1659
▁unhe	-1660
liness	-1661
▁among	-1662
▁helping	-1663
ules	-1664
▁depend	-1665
▁young	-1666
▁excited	-1667
▁tool	-1668
▁movie	-1669
dd	-1670
ener	-1671
▁met	-1672
▁prefer	-1673
ails	-1674
▁unknow	-1675
▁song	-1676
▁reward	-1677
▁educ	-1678
▁unset	-1679
▁unknown	-1680
▁cozy	-1681
▁med	-1682
▁Nature	-1683
▁meaning	-1684
▁left	-1685
▁properly	-1686
▁rece	-1687
▁action	-1688
▁process	-1689
▁yourself	-1690
▁awareness	-1691
▁cher	-1692
viting	-1693
▁recently	-1694
▁G	-1695
▁po	-1696
▁river	-1697
▁lonely	-1698
▁changing	-1699
li	-1700
▁decisions	-1701
astic	-1702
▁conversation	-1703
chen	-1704
ouse	-1705
tling	-1706
▁star	-1707
▁shake	-1708
▁bringing	-1709
▁Some	-1710
▁kitchen	-1711
▁uninviting	-1712
▁snow	-1713
▁gather	-1714
▁beh	-1715
▁sign	-1716
▁point	-1717
▁leaves	-1718
▁wanted	-1719
▁exploring	-1720
▁connection	-1721
cin	-1722
▁house	-1723
▁issue	-1724
▁behind	-1725
hips	-1726
▁fas	-1727
▁books	-1728
▁fascin	-1729
▁unsettling	-1730
▁discussions	-1731
▁dust	-1732
▁nearby	-1733
▁strength	-1734
▁opp	-1735
▁cleaner	-1736
▁everyday	-1737
ches	-1738
rate	-1739
ledge	-1740
▁bother	-1741
▁driving	-1742
▁colorful	-1743
illy	-1744
▁lack	-1745
▁fascinating	-1746
ween	-1747
▁rep	-1748
▁town	-1749
▁between	-1750
▁society	-1751
opp	-1752
ition	-1753
▁fact	-1754
▁rules	-1755
▁patience	-1756
▁efforts	-1757
▁ty	-1758
▁smells	-1759
▁spot	-1760
▁emp	-1761
▁moods	-1762
▁expected	-1763
ned	-1764
ro	-1765
ene	-1766
▁pay	-1767
▁relaxing	-1768
ocking	-1769
▁loved	-1770
▁snacks	-1771
▁unwell	-1772
▁nothing	-1773
▁sy	-1774
▁tw	-1775
▁road	-1776
▁bigger	-1777
▁imagin	-1778
der	-1779
▁thing	-1780
▁creates	-1781
ond	-1782
vel	-1783
▁cool	-1784
▁confid	-1785
iles	-1786
▁matters	-1787
▁happened	-1788
▁education	-1789
▁hat	-1790
▁hor	-1791
being	-1792
▁present	-1793
▁draw	-1794
▁planet	-1795
▁indoors	-1796
bor	-1797
▁vo	-1798
▁True	-1799
▁gives	-1800
▁red	-1801
▁ris	-1802
▁season	-1803
▁dam	-1804
▁tools	-1805
▁trust	-1806
▁though	-1807
▁cherish	-1808
▁chance	-1809
▁healthier	-1810
ress	-1811
▁cut	-1812
▁valu	-1813
▁trave	-1814
▁clothes	-1815
▁sea	-1816
▁curi	-1817
▁cleanliness	-1818
dden	-1819
▁month	-1820
▁secret	-1821
▁sudden	-1822
▁fruit	-1823
▁rather	-1824
ze	-1825
erve	-1826
▁hot	-1827
▁curren	-1828
▁filled	-1829
▁adds	-1830
▁mistakes	-1831
▁black	-1832
▁sil	-1833
▁unt	-1834
▁reci	-1835
ction	-1836
▁coll	-1837
▁polit	-1838
▁current	-1839
▁jud	-1840
bt	-1841
▁cor	-1842
▁dull	-1843
▁struggle	-1844
▁adventure	-1845
▁unappealing	-1846
orth	-1847
▁cond	-1848
▁medical	-1849
▁sunlight	-1850
▁guide	-1851
▁parks	-1852
▁planned	-1853
▁frustrated	-1854
▁produ	-1855
▁badness	-1856
▁negative	-1857
amp	-1858
▁touch	-1859
▁smiles	-1860
▁hearing	-1861
▁flat	-1862
▁sugg	-1863
▁communities	-1864
▁dangerous	-1865
▁knowledge	-1866
▁K	-1867
ans	-1868
izing	-1869
iss	-1870
lif	-1871
▁hu	-1872
▁appear	-1873
erri	-1874
uel	-1875
▁fool	-1876
▁unp	-1877
▁opin	-1878
▁store	-1879
onest	-1880
▁prov	-1881
▁People	-1882
▁window	-1883
▁delicate	-1884
▁dig	-1885
▁whole	-1886
▁foolish	-1887
ff	-1888
▁appro	-1889
work	-1890
▁key	-1891
▁pets	-1892
▁viol	-1893
fl	-1894
▁game	-1895
▁mach	-1896
hys	-1897
▁load	-1898
▁oven	-1899
▁areas	-1900
▁train	-1901
▁confusing	-1902
ests	-1903
aging	-1904
▁offer	-1905
▁walks	-1906
▁outdoor	-1907
▁necessary	-1908
▁thin	-1909
▁trouble	-1910
▁solution	-1911
▁grey	-1912
▁hist	-1913
▁uplif	-1914
▁hidden	-1915
▁enjoyed	-1916
▁creative	-1917
▁political	-1918
▁information	-1919
look	-1920
▁Would	-1921
▁personal	-1922
sw	-1923
▁Hope	-1924
▁phys	-1925
▁tell	-1926
▁cruel	-1927
ale	-1928
tain	-1929
▁eng	-1930
▁themselves	-1931
▁materials	-1932
ought	-1933
▁jump	-1934
bb	-1935
▁orn	-1936
▁white	-1937
▁company	-1938
▁homes	-1939
▁drinks	-1940
▁creativity	-1941
▁ill	-1942
▁painting	-1943
like	-1944
▁sho	-1945
iring	-1946
▁bodies	-1947
▁ret	-1948
▁sty	-1949
▁fight	-1950
▁bas	-1951
▁gener	-1952
med	-1953
ivid	-1954
▁land	-1955
▁wide	-1956
▁solid	-1957
▁losing	-1958
▁distract	-1959
▁few	-1960
▁Life	-1961
▁lose	-1962
▁details	-1963
▁dre	-1964
▁history	-1965
▁equ	-1966
▁They	-1967
▁return	-1968
apt	-1969
chool	-1970
▁cheap	-1971
▁shine	-1972
ying	-1973
▁loose	-1974
▁surely	-1975
▁responsibil	-1976
▁U	-1977
▁mot	-1978
▁pen	-1979
▁farm	-1980
▁sand	-1981
itions	-1982
▁gross	-1983
▁skills	-1984
iff	-1985
▁hang	-1986
▁cover	-1987
▁fruits	-1988
▁concerns	-1989
▁jo	-1990
▁physical	-1991
▁ey	-1992
ages	-1993
▁syst	-1994
▁careless	-1995
yc	-1996
▁pap	-1997
▁brave	-1998
▁litter	-1999
ost	-2000
ield	-2001
▁answ	-2002
▁moon	-2003
▁sight	-2004
▁school	-2005
▁activity	-2006
ial	-2007
alse	-2008
▁char	-2009
▁dead	-2010
ivated	-2011
▁bitter	-2012
▁topics	-2013
▁complete	-2014
▁tree	-2015
▁along	-2016
▁false	-2017
▁imagine	-2018
ner	-2019
▁grass	-2020
▁stiff	-2021
arrow	-2022
▁burn	-2023
redict	-2024
▁meaningful	-2025
▁sing	-2026
▁unpredict	-2027
▁stret	-2028
▁practice	-2029
▁hands	-2030
▁honest	-2031
▁positively	-2032
▁teach	-2033
▁spo	-2034
▁rout	-2035
▁unus	-2036
▁famil	-2037
▁until	-2038
▁narrow	-2039
▁effective	-2040
ults	-2041
▁clos	-2042
▁dirt	-2043
▁leads	-2044
▁rainy	-2045
▁shines	-2046
▁slowly	-2047
▁travel	-2048
▁discussing	-2049
ids	-2050
▁bent	-2051
▁cake	-2052
▁market	-2053
▁curious	-2054
ele	-2055
eleb	-2056
▁tech	-2057
▁thri	-2058
▁picture	-2059
anc	-2060
▁sci	-2061
▁match	-2062
▁fearfulness	-2063
vate	-2064
▁set	-2065
▁loss	-2066
▁dress	-2067
▁field	-2068
▁lessen	-2069
ellow	-2070
▁techn	-2071
▁breath	-2072
▁lim	-2073
▁able	-2074
▁prev	-2075
▁accid	-2076
ese	-2077
▁works	-2078
▁leather	-2079
time	-2080
▁serv	-2081
▁excite	-2082
▁stressful	-2083
▁dear	-2084
ppy	-2085
ison	-2086
▁fair	-2087
▁paint	-2088
▁missing	-2089
▁powerful	-2090
fit	-2091
par	-2092
ires	-2093
more	-2094
uals	-2095
▁press	-2096
▁stand	-2097
▁belief	-2098
▁damage	-2099
▁lively	-2100
▁anymore	-2101
▁individ	-2102
▁private	-2103
▁fore	-2104
▁celeb	-2105
▁spade	-2106
▁tastes	-2107
▁unsure	-2108
▁yellow	-2109
▁unusual	-2110
▁mil	-2111
▁pur	-2112
▁planning	-2113
▁creatures	-2114
▁excitement	-2115
▁unpredictable	-2116
▁ice	-2117
▁reco	-2118
▁hanging	-2119
▁wearing	-2120
eak	-2121
▁awake	-2122
▁flying	-2123
▁individuals	-2124
▁Be	-2125
sing	-2126
▁bag	-2127
▁seek	-2128
▁feeble	-2129
ilar	-2130
▁him	-2131
▁acce	-2132
▁empty	-2133
▁mid	-2134
cious	-2135
▁smart	-2136
▁dishes	-2137
night	-2138
▁body	-2139
▁fish	-2140
▁toy	-2141
entle	-2142
▁This	-2143
▁closer	-2144
▁stea	-2145
▁wash	-2146
▁hiding	-2147
▁similar	-2148
ho	-2149
ertile	-2150
▁cheese	-2151
▁dislike	-2152
▁pictures	-2153
▁certainly	-2154
dle	-2155
lier	-2156
▁nut	-2157
▁hair	-2158
▁prom	-2159
▁worth	-2160
▁suggest	-2161
▁blooming	-2162
ens	-2163
▁To	-2164
▁gentle	-2165
▁growing	-2166
▁results	-2167
ease	-2168
ishing	-2169
▁fertile	-2170
lpful	-2171
▁count	-2172
▁middle	-2173
▁conscious	-2174
▁Me	-2175
▁sor	-2176
▁suc	-2177
bject	-2178
▁burden	-2179
▁prices	-2180
▁unhelpful	-2181
▁dou	-2182
▁fat	-2183
▁prob	-2184
▁shel	-2185
▁then	-2186
▁manag	-2187
▁skies	-2188
▁cloudy	-2189
▁contin	-2190
▁follow	-2191
▁tonight	-2192
▁violent	-2193
▁perspect	-2194
▁got	-2195
▁side	-2196
▁unha	-2197
▁Being	-2198
▁frequ	-2199
▁compan	-2200
▁effects	-2201
▁prevent	-2202
▁opinions	-2203
▁roll	-2204
▁soup	-2205
▁against	-2206
▁teamwork	-2207
▁lessons	-2208
▁provide	-2209
▁ask	-2210
▁onto	-2211
▁requ	-2212
▁paper	-2213
▁separ	-2214
▁smoke	-2215
▁spark	-2216
▁Remember	-2217
▁overwhelmed	-2218
▁odd	-2219
▁war	-2220
ources	-2221
▁shape	-2222
▁science	-2223
▁loc	-2224
▁flav	-2225
▁liqu	-2226
▁prog	-2227
▁overlook	-2228
ution	-2229
▁group	-2230
▁advice	-2231
▁sitting	-2232
▁thunder	-2233
▁teaching	-2234
▁So	-2235
▁kids	-2236
▁breaks	-2237
▁needed	-2238
▁elastic	-2239
▁carefully	-2240
▁relations	-2241
▁jew	-2242
▁healing	-2243
▁darkness	-2244
▁inviting	-2245
▁prepared	-2246
▁projects	-2247
▁Hopefully	-2248
owing	-2249
▁jewel	-2250
▁unhappy	-2251
ca	-2252
ances	-2253
nings	-2254
▁earth	-2255
▁incre	-2256
▁twist	-2257
▁flavors	-2258
▁adventures	-2259
ton	-2260
▁push	-2261
▁stud	-2262
▁winds	-2263
▁falling	-2264
▁business	-2265
▁conditions	-2266
▁city	-2267
▁ling	-2268
ential	-2269
▁level	-2270
▁starts	-2271
▁tricky	-2272
▁prepare	-2273
rer	-2274
▁min	-2275
▁pull	-2276
▁usual	-2277
▁troubles	-2278
▁tran	-2279
▁wild	-2280
▁earlier	-2281
▁head	-2282
▁table	-2283
▁recipes	-2284
▁rewarding	-2285
ep	-2286
▁hum	-2287
▁mag	-2288
▁wav	-2289
earer	-2290
ustom	-2291
▁dire	-2292
▁awful	-2293
▁beach	-2294
▁spirit	-2295
atic	-2296
▁cup	-2297
▁fire	-2298
▁paths	-2299
▁accept	-2300
▁separate	-2301
erves	-2302
▁neigh	-2303
▁relie	-2304
▁views	-2305
▁clearer	-2306
▁ve	-2307
▁bene	-2308
▁movies	-2309
▁recogn	-2310
▁friendly	-2311
▁responsibility	-2312
▁knot	-2313
▁send	-2314
▁sock	-2315
▁metho	-2316
▁mount	-2317
▁unwel	-2318
▁valid	-2319
rateful	-2320
▁openly	-2321
▁tiring	-2322
▁reflection	-2323
eath	-2324
▁done	-2325
▁hour	-2326
▁causing	-2327
▁Together	-2328
oof	-2329
▁transp	-2330
ute	-2331
▁lar	-2332
▁dogs	-2333
▁sick	-2334
▁const	-2335
▁custom	-2336
▁knowing	-2337
olo	-2338
▁arri	-2339
▁fold	-2340
▁inse	-2341
▁stom	-2342
▁bread	-2343
▁uncertainty	-2344
hip	-2345
cape	-2346
▁bat	-2347
▁pie	-2348
ished	-2349
osite	-2350
▁snee	-2351
opping	-2352
earning	-2353
▁tricks	-2354
▁seasons	-2355
▁stomach	-2356
▁opposite	-2357
▁struggles	-2358
▁unwelcoming	-2359
▁boat	-2360
▁equal	-2361
▁useful	-2362
▁boiling	-2363
▁forever	-2364
▁suppose	-2365
▁transport	-2366
▁judge	-2367
▁pleas	-2368
▁sheep	-2369
▁songs	-2370
▁actually	-2371
▁products	-2372
▁uplifting	-2373
▁fem	-2374
▁reach	-2375
▁focused	-2376
▁Learning	-2377
▁grateful	-2378
▁expectations	-2379
▁purp	-2380
omatic	-2381
▁sorry	-2382
▁liquid	-2383
▁breathe	-2384
▁swimming	-2385
▁arm	-2386
stood	-2387
▁roof	-2388
▁active	-2389
▁seemed	-2390
▁misunder	-2391
icer	-2392
▁infl	-2393
▁waves	-2394
▁receip	-2395
▁machines	-2396
ility	-2397
ology	-2398
▁influ	-2399
▁deeper	-2400
▁female	-2401
▁organized	-2402
irt	-2403
fits	-2404
▁par	-2405
▁var	-2406
▁ball	-2407
▁impul	-2408
▁nicer	-2409
▁silly	-2410
▁weigh	-2411
▁automatic	-2412
▁bothering	-2413
▁thoughtful	-2414
gin	-2415
ift	-2416
▁Keep	-2417
▁second	-2418
▁visiting	-2419
▁bree	-2420
▁doubt	-2421
▁unmot	-2422
▁companies	-2423
▁differently	-2424
▁drain	-2425
gs	-2426
redi	-2427
▁hide	-2428
▁test	-2429
▁types	-2430
▁voices	-2431
▁produce	-2432
▁dependent	-2433
▁friendships	-2434
ery	-2435
▁hate	-2436
▁collect	-2437
▁showing	-2438
▁families	-2439
▁frequent	-2440
▁unmotivated	-2441
▁fil	-2442
▁least	-2443
▁shoes	-2444
▁orange	-2445
▁Keeping	-2446
▁beliefs	-2447
▁informed	-2448
▁tax	-2449
▁incl	-2450
bjects	-2451
▁Every	-2452
▁parts	-2453
▁state	-2454
▁probable	-2455
▁troubling	-2456
▁technology	-2457
ams	-2458
nds	-2459
▁adapt	-2460
▁facts	-2461
▁treats	-2462
ament	-2463
▁wound	-2464
▁ornament	-2465
▁progress	-2466
▁starting	-2467
allel	-2468
comes	-2469
erries	-2470
▁begin	-2471
▁fixed	-2472
entions	-2473
▁suddenly	-2474
▁chal	-2475
▁task	-2476
▁trip	-2477
▁burst	-2478
▁mindful	-2479
▁parallel	-2480
▁ra	-2481
hood	-2482
▁lifts	-2483
▁escape	-2484
▁system	-2485
angu	-2486
erms	-2487
▁base	-2488
▁breeze	-2489
▁shapes	-2490
▁outcomes	-2491
▁understood	-2492
▁misunderstand	-2493
vert	-2494
▁ess	-2495
fting	-2496
▁decor	-2497
▁butter	-2498
▁finish	-2499
▁pressure	-2500
▁accidents	-2501
▁kn	-2502
▁crow	-2503
▁tips	-2504
▁floor	-2505
elf	-2506
▁note	-2507
▁steam	-2508
▁advert	-2509
▁animal	-2510
▁reasons	-2511
sed	-2512
▁langu	-2513
▁general	-2514
▁running	-2515
ates	-2516
▁bab	-2517
▁sal	-2518
▁drop	-2519
▁horn	-2520
fortun	-2521
▁fully	-2522
▁increase	-2523
▁digestion	-2524
▁effectively	-2525
▁Clean	-2526
▁prior	-2527
▁baking	-2528
▁propert	-2529
ipp	-2530
eaking	-2531
▁imagination	-2532
thy	-2533
▁door	-2534
▁tray	-2535
▁veget	-2536
etizing	-2537
▁chances	-2538
▁impulse	-2539
▁confidence	-2540
▁ir	-2541
▁bra	-2542
▁coal	-2543
▁relief	-2544
▁purpose	-2545
▁shopping	-2546
ever	-2547
▁band	-2548
▁bran	-2549
▁myst	-2550
▁range	-2551
▁allows	-2552
▁account	-2553
▁calmness	-2554
▁confident	-2555
▁relationships	-2556
dge	-2557
▁receive	-2558
▁approach	-2559
▁neighbor	-2560
▁main	-2561
▁solve	-2562
ables	-2563
▁caut	-2564
▁soot	-2565
▁treas	-2566
▁Losing	-2567
▁adding	-2568
▁lights	-2569
▁attract	-2570
▁cautious	-2571
▁essential	-2572
▁acts	-2573
▁poll	-2574
▁safely	-2575
▁stretch	-2576
▁advertise	-2577
▁remembering	-2578
▁his	-2579
▁lin	-2580
▁sear	-2581
▁germs	-2582
▁Walking	-2583
▁learned	-2584
rib	-2585
ude	-2586
▁bot	-2587
▁box	-2588
▁pot	-2589
▁wis	-2590
▁causes	-2591
▁chilly	-2592
▁hoping	-2593
▁reminding	-2594
cil	-2595
urb	-2596
▁ph	-2597
ried	-2598
▁bel	-2599
ortun	-2600
▁stit	-2601
▁dreams	-2602
▁office	-2603
▁lasting	-2604
▁pet	-2605
▁unb	-2606
▁pret	-2607
▁temp	-2608
▁stays	-2609
▁throw	-2610
▁receipt	-2611
▁overcome	-2612
gu	-2613
tra	-2614
tern	-2615
▁alm	-2616
▁del	-2617
▁hole	-2618
▁sail	-2619
▁instru	-2620
▁deserve	-2621
▁methods	-2622
▁sailing	-2623
▁smoothly	-2624
▁unappetizing	-2625
ital	-2626
▁ins	-2627
▁blan	-2628
ushing	-2629
▁humor	-2630
▁kinds	-2631
▁valued	-2632
▁opportun	-2633
▁unfortun	-2634
▁vegetables	-2635
▁discoveries	-2636
br	-2637
no	-2638
isf	-2639
▁Fee	-2640
▁Sun	-2641
▁cry	-2642
▁ing	-2643
atisf	-2644
▁chec	-2645
▁extra	-2646
▁tooth	-2647
▁ingredi	-2648
▁continue	-2649
▁inventions	-2650
▁communicate	-2651
▁sug	-2652
▁self	-2653
▁wool	-2654
▁years	-2655
▁almost	-2656
▁letter	-2657
▁happily	-2658
▁valuable	-2659
▁resources	-2660
oat	-2661
uth	-2662
plex	-2663
essel	-2664
▁rice	-2665
▁death	-2666
▁vessel	-2667
▁Cooking	-2668
ream	-2669
▁buy	-2670
verse	-2671
▁cost	-2672
▁soap	-2673
inking	-2674
▁examp	-2675
▁order	-2676
▁stars	-2677
▁country	-2678
▁organiz	-2679
▁worrying	-2680
▁negativity	-2681
▁Hi	-2682
ides	-2683
resh	-2684
▁gold	-2685
▁kick	-2686
▁above	-2687
▁clock	-2688
▁hopes	-2689
▁hollow	-2690
▁complex	-2691
▁decision	-2692
▁distance	-2693
ched	-2694
ists	-2695
ones	-2696
▁bath	-2697
▁chalk	-2698
▁harbor	-2699
▁pencil	-2700
▁greatly	-2701
▁buildings	-2702
▁disappoint	-2703
▁discussion	-2704
▁hy	-2705
▁ket	-2706
▁oce	-2707
▁pin	-2708
▁milk	-2709
▁shut	-2710
▁soil	-2711
▁wall	-2712
▁faces	-2713
▁recent	-2714
▁journeys	-2715
▁possibil	-2716
▁challenge	-2717
▁gardening	-2718
aged	-2719
▁map	-2720
▁oil	-2721
iving	-2722
ready	-2723
▁clar	-2724
▁cult	-2725
▁Focus	-2726
▁crack	-2727
▁turns	-2728
▁faster	-2729
▁designs	-2730
▁success	-2731
▁ingredients	-2732
▁Pl	-2733
iety	-2734
line	-2735
▁ens	-2736
▁bite	-2737
▁shelf	-2738
▁sugar	-2739
▁truth	-2740
▁disturb	-2741
▁positivity	-2742
fill	-2743
ores	-2744
▁emb	-2745
▁pump	-2746
▁catch	-2747
▁flavor	-2748
▁becomes	-2749
▁Focusing	-2750
uff	-2751
▁er	-2752
erry	-2753
▁eye	-2754
▁bird	-2755
▁kiss	-2756
ending	-2757
▁goals	-2758
▁kinder	-2759
▁insects	-2760
▁streets	-2761
▁influence	-2762
▁cush	-2763
▁voice	-2764
▁profit	-2765
▁Feeling	-2766
▁changed	-2767
▁courage	-2768
▁spreading	-2769
▁din	-2770
▁due	-2771
▁obs	-2772
▁pop	-2773
▁comb	-2774
▁flower	-2775
▁satisf	-2776
▁magical	-2777
▁washing	-2778
▁constant	-2779
▁mountain	-2780
bst	-2781
ging	-2782
▁See	-2783
▁fit	-2784
▁shop	-2785
▁worm	-2786
▁crowd	-2787
▁stamp	-2788
ruction	-2789
▁complic	-2790
▁gardens	-2791
▁customers	-2792
▁regularly	-2793
ss	-2794
▁Is	-2795
part	-2796
▁egg	-2797
▁chest	-2798
▁limit	-2799
▁shirt	-2800
▁simpl	-2801
▁kettle	-2802
▁minute	-2803
▁objects	-2804
▁afterward	-2805
▁confusion	-2806
ffer	-2807
▁pick	-2808
▁toys	-2809
▁early	-2810
▁green	-2811
▁impro	-2812
▁belong	-2813
▁linger	-2814
▁impress	-2815
cy	-2816
ycle	-2817
anced	-2818
▁card	-2819
▁hosp	-2820
▁went	-2821
▁promot	-2822
▁clarity	-2823
ext	-2824
eable	-2825
▁form	-2826
overed	-2827
▁prose	-2828
▁dealing	-2829
▁perform	-2830
od	-2831
▁err	-2832
▁dest	-2833
▁wood	-2834
▁spent	-2835
▁levels	-2836
▁leaving	-2837
▁married	-2838
▁smaller	-2839
▁wonders	-2840
ord	-2841
otton	-2842
▁With	-2843
▁repair	-2844
▁heavier	-2845
▁holding	-2846
▁Cleaning	-2847
▁language	-2848
▁property	-2849
▁affecting	-2850
▁brightens	-2851
▁discomfort	-2852
▁improvements	-2853
ision	-2854
▁cree	-2855
▁apart	-2856
▁local	-2857
▁memory	-2858
zz	-2859
erc	-2860
ses	-2861
althy	-2862
bbies	-2863
orter	-2864
▁gone	-2865
▁type	-2866
ousers	-2867
▁speak	-2868
▁answer	-2869
▁dangers	-2870
▁service	-2871
old	-2872
cial	-2873
just	-2874
lear	-2875
▁argu	-2876
▁luck	-2877
▁berry	-2878
▁round	-2879
▁spong	-2880
▁suffer	-2881
▁deserves	-2882
▁trousers	-2883
▁complicated	-2884
vas	-2885
chie	-2886
▁canvas	-2887
▁months	-2888
▁street	-2889
▁answers	-2890
▁drawing	-2891
▁pattern	-2892
▁stocking	-2893
▁friendship	-2894
▁opportunities	-2895
▁clim	-2896
▁text	-2897
▁glass	-2898
▁braver	-2899
▁pollution	-2900
ins	-2901
▁But	-2902
easing	-2903
▁cloth	-2904
▁exerc	-2905
▁rains	-2906
▁celebrat	-2907
▁hopefully	-2908
cc	-2909
▁Sh	-2910
rying	-2911
icking	-2912
▁metal	-2913
▁motiv	-2914
▁price	-2915
▁shade	-2916
▁slipp	-2917
▁hobbies	-2918
▁secrets	-2919
▁shocking	-2920
▁unhealthy	-2921
▁neighborhood	-2922
ont	-2923
▁nu	-2924
land	-2925
▁job	-2926
▁Fear	-2927
▁oper	-2928
orable	-2929
▁cough	-2930
▁signs	-2931
▁leaders	-2932
▁material	-2933
▁unfortunate	-2934
gi	-2935
vern	-2936
▁Wor	-2937
▁eyes	-2938
▁flag	-2939
▁achie	-2940
▁shiny	-2941
▁cotton	-2942
▁govern	-2943
▁harmon	-2944
▁includ	-2945
▁playful	-2946
▁brightness	-2947
ots	-2948
ries	-2949
▁pun	-2950
▁late	-2951
▁race	-2952
▁ship	-2953
▁trade	-2954
▁encour	-2955
▁monkey	-2956
▁beautif	-2957
▁conflic	-2958
▁routine	-2959
umn	-2960
▁save	-2961
▁unst	-2962
▁flame	-2963
▁terri	-2964
▁calmer	-2965
▁decide	-2966
▁ensure	-2967
▁berries	-2968
▁evening	-2969
▁exchange	-2970
▁interest	-2971
▁breathing	-2972
▁reactions	-2973
▁beautifully	-2974
▁perspective	-2975
▁possibilities	-2976
use	-2977
val	-2978
▁bed	-2979
ences	-2980
▁pock	-2981
▁adjust	-2982
▁fixing	-2983
▁pretty	-2984
▁already	-2985
▁students	-2986
▁government	-2987
▁discovering	-2988
port	-2989
▁rhy	-2990
▁debt	-2991
▁dish	-2992
▁rule	-2993
▁stem	-2994
▁compet	-2995
▁flight	-2996
▁sneeze	-2997
▁struct	-2998
▁styles	-2999
▁benefits	-3000
▁meetings	-3001
▁gathering	-3002
▁connecting	-3003
ooky	-3004
velop	-3005
▁island	-3006
▁nicely	-3007
▁spooky	-3008
▁trains	-3009
▁warmer	-3010
▁unpleasing	-3011
▁Sp	-3012
olate	-3013
▁blow	-3014
▁meat	-3015
▁rhyth	-3016
▁subst	-3017
▁charact	-3018
▁develop	-3019
▁routines	-3020
▁seriously	-3021
ric	-3022
eady	-3023
▁div	-3024
mbers	-3025
▁embr	-3026
▁role	-3027
oosing	-3028
ocolate	-3029
▁thrive	-3030
▁afterno	-3031
▁heaviness	-3032
▁supportive	-3033
eday	-3034
ffee	-3035
▁fog	-3036
▁law	-3037
▁rid	-3038
place	-3039
▁gray	-3040
▁size	-3041
▁took	-3042
▁uses	-3043
▁birth	-3044
▁horse	-3045
▁silver	-3046
▁someday	-3047
▁direction	-3048
▁struggling	-3049
afe	-3050
iar	-3051
ctly	-3052
▁occ	-3053
▁ray	-3054
▁class	-3055
▁cream	-3056
▁crush	-3057
▁shift	-3058
▁thrill	-3059
▁harmony	-3060
▁lifting	-3061
▁lock	-3062
▁mine	-3063
ishment	-3064
▁drawer	-3065
▁nights	-3066
▁ruined	-3067
▁cushion	-3068
▁example	-3069
▁singing	-3070
▁environments	-3071
irc	-3072
ably	-3073
▁rev	-3074
▁case	-3075
▁circ	-3076
▁meas	-3077
▁ring	-3078
▁silk	-3079
▁vibr	-3080
▁disru	-3081
▁holds	-3082
▁ocean	-3083
▁write	-3084
atching	-3085
▁caused	-3086
▁unsafe	-3087
▁cookies	-3088
▁celebrate	-3089
▁memorable	-3090
up	-3091
rit	-3092
ered	-3093
▁cam	-3094
▁list	-3095
▁wine	-3096
riting	-3097
▁style	-3098
▁Eating	-3099
▁online	-3100
▁polish	-3101
▁manager	-3102
▁mindset	-3103
▁station	-3104
▁vibrant	-3105
▁requires	-3106
▁recognize	-3107
▁expressing	-3108
▁gatherings	-3109
lies	-3110
▁cra	-3111
iding	-3112
▁chaos	-3113
▁frame	-3114
▁plate	-3115
▁risks	-3116
▁spots	-3117
▁talks	-3118
▁Writing	-3119
▁chatting	-3120
iled	-3121
▁ful	-3122
▁baby	-3123
▁chur	-3124
▁cred	-3125
▁musc	-3126
▁camer	-3127
▁human	-3128
▁autumn	-3129
▁desire	-3130
▁fulfill	-3131
▁patterns	-3132
▁afternoon	-3133
▁welcoming	-3134
▁concerning	-3135
▁organization	-3136
ied	-3137
ific	-3138
▁mud	-3139
▁creep	-3140
▁front	-3141
▁hurts	-3142
▁means	-3143
▁spill	-3144
▁worms	-3145
▁talked	-3146
▁terrible	-3147
iny	-3148
new	-3149
aced	-3150
outh	-3151
ising	-3152
▁line	-3153
▁mouth	-3154
▁relig	-3155
▁amount	-3156
▁coffee	-3157
▁freely	-3158
▁recipe	-3159
aving	-3160
icing	-3161
▁cart	-3162
▁tick	-3163
▁harsh	-3164
▁hours	-3165
▁shame	-3166
estions	-3167
▁engine	-3168
▁fields	-3169
▁curtain	-3170
▁resting	-3171
▁checking	-3172
▁practices	-3173
▁arrive	-3174
▁church	-3175
▁credit	-3176
▁indust	-3177
▁started	-3178
▁drinking	-3179
▁supplies	-3180
▁chocolate	-3181
▁questions	-3182
▁wax	-3183
▁bear	-3184
▁goal	-3185
aments	-3186
▁alert	-3187
▁avail	-3188
▁socks	-3189
hanging	-3190
▁likely	-3191
▁passes	-3192
▁sunset	-3193
▁temper	-3194
▁achieve	-3195
▁breaths	-3196
▁turning	-3197
▁compared	-3198
▁connects	-3199
▁ornaments	-3200
▁destruction	-3201
▁auth	-3202
▁forg	-3203
▁lake	-3204
▁rail	-3205
▁tiny	-3206
▁unim	-3207
▁crime	-3208
▁linen	-3209
▁paste	-3210
portant	-3211
▁basket	-3212
▁commit	-3213
▁remain	-3214
▁rhythm	-3215
▁harmful	-3216
▁messages	-3217
▁soothing	-3218
▁unimportant	-3219
▁gri	-3220
▁unne	-3221
▁attit	-3222
▁slope	-3223
▁stage	-3224
▁wants	-3225
▁bottle	-3226
▁offers	-3227
▁distant	-3228
▁division	-3229
▁enjoyment	-3230
▁interests	-3231
▁differences	-3232
af	-3233
▁rat	-3234
ctive	-3235
riage	-3236
▁mark	-3237
▁board	-3238
▁brass	-3239
▁delays	-3240
▁brother	-3241
▁machine	-3242
▁various	-3243
▁maintain	-3244
▁unsteady	-3245
ught	-3246
▁ups	-3247
▁prin	-3248
▁repr	-3249
▁risk	-3250
▁unth	-3251
▁apples	-3252
▁forgot	-3253
▁rising	-3254
▁sponge	-3255
▁Seeking	-3256
▁explain	-3257
▁teaches	-3258
▁clothing	-3259
▁eventually	-3260
▁frightened	-3261
▁punishment	-3262
▁An	-3263
fter	-3264
▁Good	-3265
▁puzz	-3266
▁surf	-3267
▁badly	-3268
▁cared	-3269
▁cares	-3270
▁wheel	-3271
▁Should	-3272
▁nation	-3273
▁owners	-3274
▁poison	-3275
▁throat	-3276
▁address	-3277
▁bothers	-3278
▁closely	-3279
▁promote	-3280
▁unclear	-3281
▁perspectives	-3282
mpt	-3283
▁Sm	-3284
fast	-3285
▁ink	-3286
▁mel	-3287
▁fing	-3288
▁Under	-3289
▁large	-3290
▁plane	-3291
▁Having	-3292
▁giving	-3293
▁Watching	-3294
▁mornings	-3295
▁behaviors	-3296
▁Understand	-3297
▁unnecessary	-3298
▁En	-3299
aring	-3300
oming	-3301
▁neat	-3302
▁ride	-3303
urance	-3304
▁apple	-3305
▁bought	-3306
▁values	-3307
▁ignored	-3308
▁finished	-3309
▁available	-3310
▁perfectly	-3311
▁considerate	-3312
unch	-3313
ately	-3314
ounts	-3315
▁bell	-3316
▁bugs	-3317
aching	-3318
▁downs	-3319
▁lying	-3320
▁raise	-3321
▁track	-3322
▁larger	-3323
▁sights	-3324
▁turned	-3325
▁blanket	-3326
▁cultures	-3327
▁condition	-3328
▁pleasures	-3329
▁supporting	-3330
▁decorations	-3331
how	-3332
▁He	-3333
▁If	-3334
▁int	-3335
▁rub	-3336
ience	-3337
ional	-3338
▁Well	-3339
▁slip	-3340
arming	-3341
▁piece	-3342
▁camera	-3343
▁somehow	-3344
▁strengt	-3345
▁reaction	-3346
▁speaking	-3347
▁breakfast	-3348
▁Understanding	-3349
ody	-3350
ency	-3351
oles	-3352
orts	-3353
itary	-3354
overy	-3355
▁came	-3356
▁hygi	-3357
▁judg	-3358
▁hoped	-3359
▁Bright	-3360
▁Making	-3361
▁expert	-3362
▁stitch	-3363
▁uplift	-3364
▁wisely	-3365
▁exactly	-3366
▁treated	-3367
▁becoming	-3368
▁imaginations	-3369
▁cle	-3370
▁son	-3371
orses	-3372
▁feet	-3373
▁fork	-3374
▁rubb	-3375
▁bonds	-3376
▁recyc	-3377
▁clever	-3378
▁brought	-3379
▁hygiene	-3380
▁hospital	-3381
▁industry	-3382
▁treasures	-3383
▁strengthen	-3384
eel	-3385
put	-3386
eeth	-3387
▁Sim	-3388
ridge	-3389
eading	-3390
▁Right	-3391
▁teeth	-3392
▁payment	-3393
▁received	-3394
▁signific	-3395
▁whenever	-3396
▁insurance	-3397
▁respectful	-3398
▁cop	-3399
▁gar	-3400
▁salt	-3401
▁blood	-3402
▁cycle	-3403
▁habit	-3404
▁cooler	-3405
▁darker	-3406
▁dinner	-3407
▁contrib	-3408
▁crowded	-3409
▁priorit	-3410
▁systems	-3411
ense	-3412
hear	-3413
▁One	-3414
▁capt	-3415
▁cork	-3416
▁chain	-3417
▁doors	-3418
▁indoor	-3419
▁porter	-3420
▁within	-3421
▁confused	-3422
▁stressed	-3423
▁searching	-3424
▁belongings	-3425
▁significant	-3426
life	-3427
oost	-3428
▁Our	-3429
▁Str	-3430
▁Expl	-3431
▁ends	-3432
tening	-3433
ughter	-3434
▁enter	-3435
▁inten	-3436
▁snake	-3437
▁spoon	-3438
▁mother	-3439
▁single	-3440
▁dishear	-3441
▁leading	-3442
▁patient	-3443
▁carrying	-3444
▁preferen	-3445
▁Exploring	-3446
▁generations	-3447
irl	-3448
cknow	-3449
▁Your	-3450
▁tend	-3451
ancing	-3452
▁based	-3453
▁boost	-3454
ability	-3455
▁caught	-3456
▁collar	-3457
▁breaking	-3458
▁military	-3459
▁No	-3460
cast	-3461
oups	-3462
ister	-3463
▁bake	-3464
▁foot	-3465
ashion	-3466
iction	-3467
issors	-3468
▁Fresh	-3469
▁Using	-3470
istence	-3471
▁anxiety	-3472
▁painful	-3473
▁scissors	-3474
▁discovery	-3475
▁operation	-3476
▁represent	-3477
▁throughout	-3478
▁competition	-3479
▁understands	-3480
▁Wa	-3481
oper	-3482
oses	-3483
▁neck	-3484
▁surv	-3485
▁grain	-3486
▁knife	-3487
▁knows	-3488
▁preci	-3489
▁author	-3490
▁intense	-3491
▁precious	-3492
▁disappear	-3493
▁disheartening	-3494
▁advertisements	-3495
▁amid	-3496
▁atte	-3497
▁call	-3498
▁fade	-3499
▁knew	-3500
▁shoe	-3501
▁vide	-3502
▁brain	-3503
▁brush	-3504
▁plays	-3505
▁taken	-3506
▁Waiting	-3507
▁watched	-3508
▁affected	-3509
▁carriage	-3510
▁choosing	-3511
▁businesses	-3512
▁improvement	-3513
▁preferences	-3514
▁Ch	-3515
apped	-3516
uring	-3517
▁Kind	-3518
▁arch	-3519
▁phot	-3520
▁party	-3521
▁sandw	-3522
▁worst	-3523
▁Trying	-3524
▁pieces	-3525
▁fiction	-3526
▁pushing	-3527
▁approval	-3528
▁branches	-3529
▁beginnings	-3530
▁springtime	-3531
▁pi	-3532
body	-3533
sequ	-3534
▁fur	-3535
getic	-3536
opper	-3537
▁lots	-3538
iverse	-3539
▁roads	-3540
▁acting	-3541
▁pocket	-3542
▁poorly	-3543
▁consequ	-3544
▁endless	-3545
▁letting	-3546
▁repairs	-3547
▁simpler	-3548
▁religion	-3549
▁existence	-3550
▁somewhere	-3551
▁appearance	-3552
▁instrument	-3553
atus	-3554
ners	-3555
ross	-3556
▁girl	-3557
▁scar	-3558
▁allow	-3559
▁brick	-3560
▁smash	-3561
▁across	-3562
▁horses	-3563
▁recycling	-3564
▁J	-3565
uffy	-3566
▁deg	-3567
▁fig	-3568
onnect	-3569
ounter	-3570
▁basin	-3571
▁corre	-3572
▁hammer	-3573
▁snakes	-3574
▁stormy	-3575
▁picnics	-3576
▁warning	-3577
▁motivated	-3578
▁manageable	-3579
otic	-3580
▁bond	-3581
▁fine	-3582
▁rely	-3583
acking	-3584
▁steel	-3585
▁calmly	-3586
▁observ	-3587
▁sister	-3588
▁thread	-3589
▁chaotic	-3590
▁fulfilling	-3591
▁prioritize	-3592
▁consequences	-3593
ants	-3594
bage	-3595
kept	-3596
usic	-3597
▁ent	-3598
▁gun	-3599
▁trad	-3600
▁Music	-3601
▁amuse	-3602
▁finds	-3603
▁grows	-3604
▁north	-3605
▁Simple	-3606
▁branch	-3607
▁detail	-3608
▁messes	-3609
▁powder	-3610
▁prison	-3611
▁worked	-3612
▁Working	-3613
▁embrace	-3614
▁garbage	-3615
▁message	-3616
▁respond	-3617
▁setting	-3618
▁alarming	-3619
▁structure	-3620
ike	-3621
ative	-3622
owers	-3623
▁iron	-3624
▁name	-3625
▁arise	-3626
▁exist	-3627
▁errors	-3628
▁loudly	-3629
▁number	-3630
▁select	-3631
▁stamps	-3632
▁Reading	-3633
▁factors	-3634
▁impacts	-3635
▁Kindness	-3636
▁reaching	-3637
▁reminder	-3638
▁amusement	-3639
▁including	-3640
▁reminders	-3641
▁unthought	-3642
ird	-3643
ceed	-3644
▁Tea	-3645
▁cord	-3646
▁wire	-3647
aratus	-3648
▁charm	-3649
▁costs	-3650
▁juice	-3651
▁expans	-3652
▁gently	-3653
▁helped	-3654
▁nobody	-3655
▁disease	-3656
▁fashion	-3657
▁opinion	-3658
▁reality	-3659
▁reminded	-3660
▁upcoming	-3661
▁apparatus	-3662
▁development	-3663
aur	-3664
dget	-3665
adays	-3666
pping	-3667
▁weird	-3668
▁budget	-3669
▁copper	-3670
▁social	-3671
▁burning	-3672
▁disrupt	-3673
▁popular	-3674
▁quietly	-3675
▁restaur	-3676
▁smiling	-3677
▁succeed	-3678
▁conflict	-3679
▁fighting	-3680
▁nowadays	-3681
▁authority	-3682
▁distractions	-3683
gies	-3684
ient	-3685
anted	-3686
osity	-3687
▁nuts	-3688
assion	-3689
▁concl	-3690
▁drive	-3691
▁films	-3692
▁force	-3693
▁loves	-3694
▁sneez	-3695
▁stops	-3696
▁cutting	-3697
▁putting	-3698
▁trapped	-3699
▁workers	-3700
▁balanced	-3701
▁pleasure	-3702
▁puzzling	-3703
▁wildlife	-3704
▁expansion	-3705
▁Reflection	-3706
▁disturbing	-3707
▁suggestion	-3708
▁unthoughtful	-3709
og	-3710
lping	-3711
▁cand	-3712
▁fant	-3713
▁film	-3714
▁grip	-3715
▁tong	-3716
▁word	-3717
▁dream	-3718
▁irrit	-3719
▁owner	-3720
ication	-3721
▁acknow	-3722
▁button	-3723
▁Helping	-3724
▁engaging	-3725
▁organize	-3726
▁planting	-3727
▁entertain	-3728
▁thrilling	-3729
▁stretching	-3730
har	-3731
sibly	-3732
▁cars	-3733
▁pipe	-3734
▁rare	-3735
▁rich	-3736
ancial	-3737
ground	-3738
▁chase	-3739
▁craft	-3740
▁amazed	-3741
▁corner	-3742
▁groups	-3743
▁windows	-3744
▁accident	-3745
▁ignoring	-3746
▁interact	-3747
▁laughing	-3748
▁characters	-3749
▁mysterious	-3750
ats	-3751
back	-3752
hered	-3753
iches	-3754
▁army	-3755
▁eggs	-3756
▁tales	-3757
▁cooper	-3758
▁outing	-3759
▁rechar	-3760
▁record	-3761
▁muscles	-3762
▁quieter	-3763
▁rolling	-3764
▁familiar	-3765
▁realized	-3766
▁financial	-3767
▁invention	-3768
▁advertisement	-3769
rier	-3770
▁cow	-3771
▁buck	-3772
▁nose	-3773
▁reli	-3774
▁unit	-3775
usting	-3776
▁shock	-3777
▁behave	-3778
▁brains	-3779
▁colder	-3780
▁compar	-3781
▁arrives	-3782
▁committ	-3783
▁folding	-3784
▁outlook	-3785
▁spoiled	-3786
▁texture	-3787
▁inspired	-3788
▁noticing	-3789
▁reflects	-3790
▁experienc	-3791
▁inspiring	-3792
▁compassion	-3793
▁sandwiches	-3794
▁disappointment	-3795
ief	-3796
▁Of	-3797
▁Su	-3798
▁wom	-3799
▁edge	-3800
▁Creat	-3801
▁chief	-3802
▁print	-3803
▁scale	-3804
▁Playing	-3805
▁covered	-3806
▁damaged	-3807
▁depends	-3808
▁survive	-3809
▁improves	-3810
▁touching	-3811
▁appealing	-3812
▁suffering	-3813
▁protecting	-3814
icy	-3815
avig	-3816
▁fab	-3817
▁doct	-3818
▁pred	-3819
▁tail	-3820
▁displ	-3821
▁navig	-3822
putting	-3823
▁expens	-3824
▁fabric	-3825
▁trends	-3826
▁angrier	-3827
▁neglect	-3828
▁Thinking	-3829
▁covering	-3830
▁honestly	-3831
▁energetic	-3832
▁Remembering	-3833
free	-3834
▁glo	-3835
▁bags	-3836
▁fail	-3837
ashing	-3838
▁climb	-3839
▁opens	-3840
▁skill	-3841
▁attack	-3842
▁stones	-3843
▁stores	-3844
▁artists	-3845
▁opening	-3846
▁position	-3847
▁recharge	-3848
ddy	-3849
mind	-3850
▁abs	-3851
▁dem	-3852
▁lur	-3853
▁wit	-3854
▁mass	-3855
▁rise	-3856
▁scen	-3857
▁sche	-3858
▁seat	-3859
▁tens	-3860
▁weak	-3861
▁Enjoy	-3862
▁dance	-3863
▁faced	-3864
▁falls	-3865
▁fills	-3866
▁glove	-3867
▁images	-3868
▁scents	-3869
▁lingers	-3870
▁resolve	-3871
▁relation	-3872
▁curiosity	-3873
▁reasonable	-3874
▁appreciating	-3875
cher	-3876
▁upd	-3877
▁Even	-3878
▁kept	-3879
▁whip	-3880
essert	-3881
istant	-3882
▁forms	-3883
▁moves	-3884
▁muddy	-3885
▁serve	-3886
▁taxes	-3887
▁verse	-3888
▁wasted	-3889
▁conclus	-3890
▁Sunshine	-3891
▁addition	-3892
▁treasure	-3893
▁weekends	-3894
▁improving	-3895
▁selection	-3896
ply	-3897
▁Un	-3898
dule	-3899
ifts	-3900
▁net	-3901
▁toe	-3902
anges	-3903
enery	-3904
▁acid	-3905
▁clut	-3906
▁exha	-3907
▁lunch	-3908
▁stone	-3909
▁demand	-3910
▁regard	-3911
istening	-3912
▁interru	-3913
▁lurking	-3914
▁members	-3915
▁protest	-3916
▁sources	-3917
▁witness	-3918
▁Speaking	-3919
▁allowing	-3920
▁slippery	-3921
▁specific	-3922
▁fantastic	-3923
▁impressive	-3924
▁encouraging	-3925
▁suggestions	-3926
ib	-3927
▁won	-3928
▁diet	-3929
▁energ	-3930
▁farms	-3931
▁flies	-3932
▁bucket	-3933
▁counts	-3934
▁simply	-3935
▁ticket	-3936
▁tongue	-3937
▁dessert	-3938
▁listens	-3939
▁plastic	-3940
▁ruining	-3941
▁seeking	-3942
▁exercise	-3943
▁meanings	-3944
▁reliable	-3945
▁smoother	-3946
▁strongly	-3947
▁Listening	-3948
▁encounter	-3949
▁forgotten	-3950
▁relaxation	-3951
way	-3952
aren	-3953
erim	-3954
ible	-3955
tles	-3956
▁Ass	-3957
▁Com	-3958
▁jack	-3959
▁sour	-3960
ctions	-3961
ducing	-3962
hanges	-3963
▁combin	-3964
▁kindly	-3965
▁annoyed	-3966
▁blowing	-3967
▁outcome	-3968
▁picking	-3969
▁silence	-3970
▁teacher	-3971
▁wanting	-3972
▁schedule	-3973
▁Assistant	-3974
▁refreshed	-3975
▁practicing	-3976
▁substances	-3977
▁od	-3978
▁Can	-3979
▁hig	-3980
eries	-3981
▁page	-3982
▁rush	-3983
▁sell	-3984
▁wave	-3985
▁magic	-3986
▁trans	-3987
▁Thanks	-3988
▁limits	-3989
▁attempt	-3990
▁distrib	-3991
▁greater	-3992
▁honesty	-3993
▁release	-3994
▁complain	-3995
▁sleeping	-3996
▁committee	-3997
▁correctly	-3998
▁secretary	-3999
▁traveling	-4000
▁comparison	-4001
oll	-4002
▁Pr	-4003
▁ec	-4004
uild	-4005
ither	-4006
itive	-4007
▁Star	-4008
▁Time	-4009
▁When	-4010
▁cows	-4011
▁gest	-4012
▁item	-4013
▁said	-4014
unning	-4015
▁brake	-4016
▁occur	-4017
▁risky	-4018
▁degree	-4019
▁jewels	-4020
▁scenes	-4021
▁unwise	-4022
▁ability	-4023
▁dressing	-4024
▁motivate	-4025
▁techniqu	-4026
▁visitors	-4027
▁arguments	-4028
▁respected	-4029
▁supported	-4030
man	-4031
umb	-4032
▁Sw	-4033
ites	-4034
izes	-4035
▁ban	-4036
inary	-4037
▁Each	-4038
▁gift	-4039
▁jobs	-4040
▁After	-4041
▁Small	-4042
▁basic	-4043
▁stuff	-4044
▁nerves	-4045
▁experim	-4046
▁replace	-4047
▁navigate	-4048
▁mountains	-4049
▁unappreci	-4050
▁V	-4051
bby	-4052
ops	-4053
iest	-4054
nger	-4055
▁ord	-4056
ening	-4057
ights	-4058
▁didn	-4059
▁feed	-4060
▁gain	-4061
▁leaf	-4062
▁roles	-4063
▁babies	-4064
▁figure	-4065
▁higher	-4066
▁humans	-4067
▁search	-4068
▁spills	-4069
▁further	-4070
▁schools	-4071
▁spreads	-4072
▁tension	-4073
▁daughter	-4074
▁statement	-4075
▁reflective	-4076
▁techniques	-4077
▁distribution	-4078
▁Fl	-4079
kets	-4080
mbol	-4081
olks	-4082
▁cru	-4083
▁leg	-4084
▁copy	-4085
▁craw	-4086
▁unre	-4087
▁Sunny	-4088
▁folks	-4089
▁hobby	-4090
pending	-4091
▁ending	-4092
▁enjoys	-4093
▁fluffy	-4094
▁missed	-4095
▁symbol	-4096
▁unease	-4097
▁predict	-4098
▁refresh	-4099
▁Creating	-4100
▁training	-4101
▁satisfying	-4102
▁disappointed	-4103
▁unappreciated	-4104
▁Oh	-4105
▁eer	-4106
▁fle	-4107
aries	-4108
pting	-4109
▁Food	-4110
▁blade	-4111
▁lands	-4112
▁meant	-4113
▁paren	-4114
▁phone	-4115
▁roots	-4116
▁seeds	-4117
▁artist	-4118
▁buying	-4119
▁sadder	-4120
▁unwind	-4121
ouraging	-4122
▁benefit	-4123
▁monkeys	-4124
▁passing	-4125
▁scenery	-4126
▁spilled	-4127
▁surface	-4128
▁Starting	-4129
▁textures	-4130
▁attraction	-4131
▁considering	-4132
olid	-4133
▁Che	-4134
▁Not	-4135
▁ble	-4136
▁hook	-4137
▁laws	-4138
▁eerie	-4139
▁nails	-4140
▁sadly	-4141
▁builds	-4142
▁itself	-4143
▁tasted	-4144
▁hurtful	-4145
▁variety	-4146
▁wasting	-4147
▁Everyone	-4148
▁sometime	-4149
▁violence	-4150
▁littering	-4151
▁conclusion	-4152
▁discovered	-4153
▁productive	-4154
yond	-4155
▁caf	-4156
lines	-4157
▁Anim	-4158
▁cute	-4159
▁emer	-4160
▁Often	-4161
▁added	-4162
▁unexc	-4163
▁Facing	-4164
▁anyway	-4165
▁beyond	-4166
▁boring	-4167
▁gloves	-4168
▁rivers	-4169
▁soothe	-4170
▁visits	-4171
▁oranges	-4172
▁Enjoying	-4173
▁Spending	-4174
▁attitude	-4175
▁tendency	-4176
▁emotional	-4177
▁substance	-4178
▁performance	-4179
enu	-4180
▁Op	-4181
edom	-4182
▁two	-4183
▁Happ	-4184
▁untr	-4185
erving	-4186
▁holid	-4187
▁impos	-4188
▁overl	-4189
▁spoil	-4190
▁weeks	-4191
▁motion	-4192
▁repeat	-4193
▁riding	-4194
▁shadow	-4195
▁stains	-4196
▁Animals	-4197
▁climate	-4198
▁concert	-4199
▁drivers	-4200
▁heavily	-4201
▁hurting	-4202
▁mystery	-4203
▁servant	-4204
▁tasting	-4205
▁visited	-4206
▁measures	-4207
▁afterwards	-4208
▁impossible	-4209
▁temperature	-4210
▁difficulties	-4211
ls	-4212
ret	-4213
▁ben	-4214
▁lip	-4215
ering	-4216
▁knee	-4217
▁pres	-4218
action	-4219
▁Anger	-4220
▁broke	-4221
▁occas	-4222
▁resil	-4223
▁thumb	-4224
▁unbal	-4225
berries	-4226
▁amidst	-4227
▁circle	-4228
▁cities	-4229
▁crafts	-4230
▁either	-4231
▁needle	-4232
▁partic	-4233
▁report	-4234
▁senses	-4235
▁letters	-4236
▁mistake	-4237
▁uninter	-4238
▁customer	-4239
▁helpless	-4240
▁movement	-4241
▁stitching	-4242
▁exhausting	-4243
▁motivation	-4244
▁instruments	-4245
ilt	-4246
ped	-4247
▁adm	-4248
▁fad	-4249
affic	-4250
agree	-4251
▁Over	-4252
▁bins	-4253
▁cats	-4254
▁fell	-4255
▁nail	-4256
▁pack	-4257
▁rust	-4258
earing	-4259
▁enhan	-4260
▁proud	-4261
▁ruins	-4262
▁closed	-4263
▁entire	-4264
▁threat	-4265
▁cleaned	-4266
▁display	-4267
▁freedom	-4268
▁traffic	-4269
▁updates	-4270
▁directly	-4271
▁reducing	-4272
▁surrounds	-4273
▁wondering	-4274
▁observation	-4275
▁appreciation	-4276
▁z	-4277
wing	-4278
▁opt	-4279
▁Rain	-4280
▁bone	-4281
▁damp	-4282
▁blows	-4283
▁boats	-4284
▁error	-4285
▁lines	-4286
▁unity	-4287
▁walls	-4288
▁woman	-4289
▁fridge	-4290
▁locked	-4291
▁paying	-4292
▁burdens	-4293
▁crucial	-4294
▁engaged	-4295
▁feedback	-4296
▁ordinary	-4297
▁agreement	-4298
▁transform	-4299
▁absolutely	-4300
▁collecting	-4301
▁irritating	-4302
▁negatively	-4303
oints	-4304
▁fest	-4305
▁huge	-4306
▁scre	-4307
▁sort	-4308
▁unaw	-4309
oating	-4310
▁bound	-4311
▁dropp	-4312
▁flash	-4313
▁notes	-4314
▁tense	-4315
▁beings	-4316
▁chores	-4317
▁creepy	-4318
▁theory	-4319
▁Looking	-4320
▁digging	-4321
▁fingers	-4322
▁fishing	-4323
▁measure	-4324
▁parents	-4325
▁smoking	-4326
▁Changing	-4327
▁disagree	-4328
▁draining	-4329
▁managing	-4330
▁overcoming	-4331
▁peacefully	-4332
▁unbalanced	-4333
▁satisfaction	-4334
aps	-4335
ges	-4336
ted	-4337
▁Dr	-4338
▁Sn	-4339
drat	-4340
fess	-4341
udes	-4342
▁ass	-4343
▁bes	-4344
▁ele	-4345
▁inj	-4346
▁ric	-4347
itals	-4348
▁boot	-4349
▁stri	-4350
▁worn	-4351
utions	-4352
▁curve	-4353
▁gifts	-4354
▁pasta	-4355
▁skirt	-4356
▁vital	-4357
▁Friend	-4358
▁jacket	-4359
▁piling	-4360
▁remove	-4361
▁richer	-4362
▁sports	-4363
▁strate	-4364
▁appears	-4365
▁recover	-4366
▁fairness	-4367
▁services	-4368
▁concerned	-4369
▁overlooked	-4370
▁uninteresting	-4371
pro	-4372
aked	-4373
utes	-4374
▁Mem	-4375
▁ded	-4376
▁tot	-4377
pport	-4378
ushed	-4379
▁told	-4380
▁nerve	-4381
▁unbot	-4382
▁Garden	-4383
▁doctor	-4384
▁finger	-4385
▁papers	-4386
▁strang	-4387
▁include	-4388
▁Memories	-4389
▁floating	-4390
▁judgment	-4391
▁slipping	-4392
▁steaming	-4393
▁universe	-4394
▁attitudes	-4395
▁positives	-4396
▁potential	-4397
▁unbothered	-4398
▁interactions	-4399
▁surprisingly	-4400
cri	-4401
izz	-4402
▁sex	-4403
organ	-4404
▁Does	-4405
▁Pain	-4406
▁café	-4407
▁frag	-4408
▁hung	-4409
▁rude	-4410
▁tied	-4411
olding	-4412
▁flags	-4413
▁lasts	-4414
▁wires	-4415
sidered	-4416
▁hydrat	-4417
▁instin	-4418
▁mixing	-4419
▁review	-4420
▁saying	-4421
▁Changes	-4422
▁Support	-4423
▁raising	-4424
▁Drinking	-4425
▁argument	-4426
▁response	-4427
▁conflicts	-4428
▁depending	-4429
▁treatment	-4430
▁boundaries	-4431
▁considered	-4432
▁encourages	-4433
▁organizing	-4434
mun	-4435
▁Cl	-4436
amil	-4437
lish	-4438
▁Wow	-4439
ushes	-4440
▁pile	-4441
atures	-4442
▁empat	-4443
▁shout	-4444
▁steep	-4445
▁disast	-4446
▁disres	-4447
▁insect	-4448
▁method	-4449
▁played	-4450
▁checked	-4451
▁clutter	-4452
▁rewards	-4453
▁Teaching	-4454
▁priority	-4455
▁imagining	-4456
▁bothersome	-4457
▁carelessly	-4458
▁temperatures	-4459
▁significantly	-4460
▁gh	-4461
hile	-4462
iced	-4463
▁For	-4464
▁lay	-4465
itude	-4466
▁feat	-4467
▁hill	-4468
imming	-4469
ptions	-4470
unting	-4471
▁delay	-4472
▁ghost	-4473
▁jokes	-4474
▁pulls	-4475
▁scene	-4476
▁video	-4477
▁wings	-4478
▁access	-4479
▁planes	-4480
▁unfold	-4481
▁wouldn	-4482
▁Overall	-4483
▁capture	-4484
awberries	-4485
organized	-4486
▁throwing	-4487
▁character	-4488
▁continues	-4489
▁countries	-4490
▁experiment	-4491
▁flashlight	-4492
pts	-4493
ided	-4494
izza	-4495
ping	-4496
▁Educ	-4497
▁Plan	-4498
▁abil	-4499
▁dent	-4500
▁rate	-4501
etting	-4502
▁herbs	-4503
uilding	-4504
▁loving	-4505
▁photos	-4506
▁twists	-4507
▁worlds	-4508
▁Flowers	-4509
▁darkest	-4510
▁fragile	-4511
▁request	-4512
▁stylish	-4513
▁unaware	-4514
▁hydrated	-4515
▁supposed	-4516
▁teachers	-4517
▁abilities	-4518
▁movements	-4519
▁regarding	-4520
▁workplace	-4521
▁management	-4522
▁restaurants	-4523
▁accidentally	-4524
▁celebrations	-4525
▁representative	-4526
cha	-4527
▁lif	-4528
ashed	-4529
▁flex	-4530
▁grab	-4531
itting	-4532
▁emerg	-4533
▁hides	-4534
▁sides	-4535
▁covers	-4536
▁hungry	-4537
▁option	-4538
▁regain	-4539
▁dropped	-4540
▁enhance	-4541
▁numbers	-4542
▁passion	-4543
▁returns	-4544
▁rubbish	-4545
▁Planning	-4546
▁anywhere	-4547
▁forecast	-4548
▁handling	-4549
▁stepping	-4550
▁surfaces	-4551
▁childhood	-4552
▁favorites	-4553
▁hospitals	-4554
▁adjustment	-4555
▁responsibly	-4556
my	-4557
▁hi	-4558
▁ur	-4559
mend	-4560
ocks	-4561
ored	-4562
▁dev	-4563
▁squ	-4564
▁Open	-4565
▁inju	-4566
▁medi	-4567
▁root	-4568
▁bands	-4569
▁chair	-4570
▁effic	-4571
▁liked	-4572
▁unnot	-4573
amiliar	-4574
▁Baking	-4575
▁Commun	-4576
▁aspect	-4577
▁attend	-4578
▁reveal	-4579
▁themes	-4580
▁unable	-4581
▁empathy	-4582
▁increas	-4583
▁joining	-4584
▁jumping	-4585
▁manners	-4586
▁totally	-4587
▁vessels	-4588
▁Swimming	-4589
▁hopeless	-4590
▁probably	-4591
▁sandcast	-4592
▁exercises	-4593
▁disrespect	-4594
▁surrounded	-4595
▁unfamiliar	-4596
▁brightening	-4597
▁fa	-4598
eeds	-4599
miss	-4600
oing	-4601
room	-4602
ters	-4603
assed	-4604
nding	-4605
tered	-4606
▁pudd	-4607
▁tang	-4608
▁yard	-4609
ommend	-4610
rients	-4611
▁Great	-4612
▁banan	-4613
▁block	-4614
▁bones	-4615
▁invol	-4616
▁salad	-4617
▁shore	-4618
▁trend	-4619
iration	-4620
▁bridge	-4621
▁dreary	-4622
▁engage	-4623
▁united	-4624
▁videos	-4625
▁wounds	-4626
ratitude	-4627
▁circles	-4628
▁pulling	-4629
▁reports	-4630
▁require	-4631
▁testing	-4632
▁blankets	-4633
▁promises	-4634
▁protests	-4635
▁standing	-4636
▁cooperate	-4637
▁nutrients	-4638
▁recommend	-4639
▁loneliness	-4640
▁structures	-4641
▁celebrating	-4642
▁frustrations	-4643
rap	-4644
ball	-4645
dows	-4646
ford	-4647
rees	-4648
zing	-4649
▁Ear	-4650
▁Now	-4651
▁bar	-4652
▁dim	-4653
▁rod	-4654
▁nois	-4655
▁Pract	-4656
▁pizza	-4657
▁afford	-4658
▁dining	-4659
▁forest	-4660
▁neighb	-4661
▁outfit	-4662
▁anytime	-4663
▁concent	-4664
▁culture	-4665
▁illness	-4666
▁limited	-4667
▁sticking	-4668
▁stunning	-4669
▁subjects	-4670
▁energized	-4671
▁preparing	-4672
▁tiredness	-4673
▁contribute	-4674
▁dedication	-4675
▁acknowledge	-4676
ky	-4677
mon	-4678
▁La	-4679
care	-4680
term	-4681
umbs	-4682
ummy	-4683
▁Are	-4684
▁ago	-4685
compl	-4686
▁drag	-4687
▁hous	-4688
▁seed	-4689
▁sens	-4690
▁vary	-4691
▁vers	-4692
▁Earth	-4693
▁float	-4694
▁grace	-4695
▁noisy	-4696
▁odors	-4697
▁sched	-4698
▁trips	-4699
▁Seeing	-4700
▁charge	-4701
▁invite	-4702
▁prepar	-4703
▁saving	-4704
▁softer	-4705
▁artwork	-4706
▁content	-4707
▁emotion	-4708
▁flowing	-4709
▁needing	-4710
▁rushing	-4711
▁selfish	-4712
▁shorter	-4713
▁tightly	-4714
▁Building	-4715
▁Painting	-4716
▁unwanted	-4717
▁playground	-4718
▁strategies	-4719
▁appreciated	-4720
▁distracting	-4721
▁neighborhoods	-4722
▁At	-4723
dges	-4724
ival	-4725
▁unl	-4726
▁unn	-4727
flies	-4728
▁Most	-4729
▁bike	-4730
▁guid	-4731
atives	-4732
▁likes	-4733
▁moder	-4734
▁Caring	-4735
▁descri	-4736
▁racing	-4737
▁showed	-4738
▁Shadows	-4739
▁dancing	-4740
▁equally	-4741
▁pockets	-4742
▁rubbing	-4743
▁shelves	-4744
▁blocking	-4745
▁carefree	-4746
▁crafting	-4747
▁crawling	-4748
▁function	-4749
▁guidance	-4750
▁smallest	-4751
▁Gardening	-4752
▁instincts	-4753
▁neighbors	-4754
▁frustrates	-4755
▁unexciting	-4756
▁inspiration	-4757
▁reflections	-4758
▁experiencing	-4759
co	-4760
ced	-4761
▁Ar	-4762
ipes	-4763
orms	-4764
▁tun	-4765
ached	-4766
aches	-4767
▁Warm	-4768
▁gave	-4769
▁laug	-4770
▁lets	-4771
▁sore	-4772
▁tack	-4773
minded	-4774
▁Trust	-4775
▁ballo	-4776
▁comed	-4777
▁perce	-4778
▁pests	-4779
▁pipes	-4780
▁ships	-4781
▁warms	-4782
ifferen	-4783
▁muscle	-4784
▁purcha	-4785
▁aspects	-4786
▁bravery	-4787
▁finally	-4788
▁mention	-4789
▁nowhere	-4790
▁shaking	-4791
▁solving	-4792
fessional	-4793
▁avoiding	-4794
▁climbing	-4795
▁habitats	-4796
▁included	-4797
▁recovery	-4798
▁Education	-4799
▁embracing	-4800
▁languages	-4801
▁mysteries	-4802
▁schedules	-4803
▁frequently	-4804
▁resilience	-4805
▁celebration	-4806
▁togetherness	-4807
eng	-4808
rep	-4809
sha	-4810
▁Mo	-4811
ands	-4812
ards	-4813
iven	-4814
vest	-4815
▁Bir	-4816
iture	-4817
ocked	-4818
orthy	-4819
tains	-4820
▁furn	-4821
▁lips	-4822
▁stir	-4823
▁built	-4824
▁lower	-4825
▁media	-4826
▁unpro	-4827
▁hiking	-4828
▁mouths	-4829
▁points	-4830
onnected	-4831
▁bananas	-4832
▁beneath	-4833
▁besides	-4834
▁diverse	-4835
▁farmers	-4836
▁granted	-4837
▁laughed	-4838
▁observe	-4839
▁profits	-4840
▁reviews	-4841
▁travels	-4842
▁describe	-4843
▁examples	-4844
▁payments	-4845
▁wasteful	-4846
▁expecting	-4847
▁furniture	-4848
▁unnoticed	-4849
▁collection	-4850
▁distracted	-4851
▁statements	-4852
▁traditions	-4853
▁butterflies	-4854
▁carelessness	-4855
arr	-4856
bts	-4857
cap	-4858
ics	-4859
imy	-4860
ndry	-4861
▁Art	-4862
▁inno	-4863
ically	-4864
▁baked	-4865
▁cakes	-4866
▁chill	-4867
▁humid	-4868
▁juicy	-4869
▁marks	-4870
▁pause	-4871
▁shops	-4872
▁study	-4873
▁tests	-4874
▁toast	-4875
▁Honest	-4876
▁grains	-4877
▁scares	-4878
▁waters	-4879
together	-4880
▁Holding	-4881
▁alright	-4882
▁filling	-4883
▁laundry	-4884
▁product	-4885
▁relieve	-4886
▁ticking	-4887
▁expenses	-4888
▁features	-4889
▁insights	-4890
▁involves	-4891
▁stomachs	-4892
▁weighing	-4893
▁acknowled	-4894
▁balancing	-4895
▁expensive	-4896
▁freshness	-4897
▁sensitive	-4898
▁shoulders	-4899
▁Practicing	-4900
▁brightened	-4901
▁properties	-4902
▁recognized	-4903
▁concentrate	-4904
▁construction	-4905
▁consideration	-4906
lls	-4907
cogn	-4908
▁She	-4909
▁hon	-4910
arted	-4911
cking	-4912
urity	-4913
▁Dogs	-4914
▁joke	-4915
▁keys	-4916
▁male	-4917
▁pair	-4918
▁sust	-4919
▁swee	-4920
▁cords	-4921
▁guard	-4922
▁hurry	-4923
▁knots	-4924
▁lemon	-4925
▁older	-4926
▁tries	-4927
▁yummy	-4928
hearted	-4929
repared	-4930
venient	-4931
▁bricks	-4932
▁oceans	-4933
▁scient	-4934
▁unlike	-4935
▁wheels	-4936
▁Friends	-4937
▁appoint	-4938
▁bottles	-4939
▁experts	-4940
▁longing	-4941
▁sustain	-4942
▁creature	-4943
▁curtains	-4944
▁daunting	-4945
▁gestures	-4946
▁listened	-4947
▁receipts	-4948
▁simplest	-4949
▁whatever	-4950
▁nighttime	-4951
▁altogether	-4952
▁protection	-4953
▁respecting	-4954
▁experienced	-4955
dy	-4956
erm	-4957
▁rot	-4958
▁sau	-4959
aight	-4960
▁kite	-4961
▁ment	-4962
▁rays	-4963
▁wond	-4964
▁aller	-4965
▁harms	-4966
▁image	-4967
▁innov	-4968
▁sizes	-4969
▁weeds	-4970
▁admire	-4971
▁flames	-4972
▁opened	-4973
▁slower	-4974
ifferent	-4975
▁decided	-4976
▁Checking	-4977
▁drawings	-4978
▁entirely	-4979
▁flexible	-4980
▁happiest	-4981
▁particip	-4982
▁playtime	-4983
▁straight	-4984
▁unending	-4985
▁lightness	-4986
▁lightning	-4987
▁pointless	-4988
▁polishing	-4989
▁Supporting	-4990
▁restaurant	-4991
▁sandcastles	-4992
▁surrounding	-4993
▁strawberries	-4994
▁Communication	-4995
▁disrespectful	-4996
cu	-4997
bes	-4998
days	-4999
wise	-5000
▁Sad	-5001
▁aud	-5002
eases	-5003
orrow	-5004
ossed	-5005
▁cour	-5006
▁isol	-5007
▁lies	-5008
▁sold	-5009
▁swea	-5010
▁wake	-5011
elling	-5012
▁Happy	-5013
▁cards	-5014
▁chats	-5015
▁crops	-5016
▁fewer	-5017
▁fires	-5018
▁heads	-5019
▁speed	-5020
▁wiser	-5021
ination	-5022
▁sorrow	-5023
▁stands	-5024
▁tackle	-5025
▁Strange	-5026
▁Wishing	-5027
▁desires	-5028
▁outfits	-5029
▁quicker	-5030
▁sweeter	-5031
▁viewers	-5032
▁Choosing	-5033
▁birthday	-5034
▁security	-5035
▁wondered	-5036
▁occasions	-5037
▁forgetting	-5038
▁unprepared	-5039
▁presentation	-5040
▁relationship	-5041
▁contributions	-5042
oke	-5043
gest	-5044
leep	-5045
▁And	-5046
▁Isn	-5047
▁bic	-5048
▁sav	-5049
azing	-5050
kempt	-5051
▁deli	-5052
▁dram	-5053
▁fans	-5054
▁genu	-5055
▁grad	-5056
▁peri	-5057
▁ripp	-5058
▁Their	-5059
▁coins	-5060
▁ended	-5061
▁kites	-5062
▁moved	-5063
▁vibes	-5064
▁windy	-5065
flowers	-5066
mindful	-5067
▁cooked	-5068
▁differ	-5069
▁fights	-5070
▁height	-5071
▁houses	-5072
▁learns	-5073
▁lesson	-5074
▁Getting	-5075
▁catches	-5076
▁fabrics	-5077
▁incredi	-5078
▁pencils	-5079
▁players	-5080
▁tangled	-5081
▁unkempt	-5082
▁Laughter	-5083
▁attached	-5084
▁contrast	-5085
▁provides	-5086
▁sneezing	-5087
▁unbright	-5088
▁unfairly	-5089
▁disasters	-5090
▁stability	-5091
▁sweetness	-5092
▁unmindful	-5093
▁directions	-5094
▁impression	-5095
▁influences	-5096
▁priorities	-5097
▁unchanging	-5098
▁maintaining	-5099
▁recognition	-5100
▁encouragement	-5101
▁organizations	-5102
lev	-5103
ump	-5104
asty	-5105
irts	-5106
medi	-5107
reed	-5108
▁Dis	-5109
▁Vis	-5110
dding	-5111
▁fres	-5112
▁legs	-5113
▁says	-5114
▁sway	-5115
▁Clear	-5116
▁blend	-5117
▁bored	-5118
▁holes	-5119
▁moist	-5120
▁nasty	-5121
▁races	-5122
▁seats	-5123
▁slimy	-5124
▁slips	-5125
▁yours	-5126
oration	-5127
▁assist	-5128
▁crowds	-5129
▁exists	-5130
▁fading	-5131
▁goodby	-5132
▁laughs	-5133
▁remark	-5134
▁scream	-5135
▁spices	-5136
▁thrown	-5137
▁wander	-5138
▁contain	-5139
▁forming	-5140
▁hardest	-5141
▁minutes	-5142
▁raining	-5143
▁sponges	-5144
▁unheard	-5145
▁creeping	-5146
▁diseases	-5147
▁inspires	-5148
▁patients	-5149
▁repeated	-5150
▁thankful	-5151
▁Different	-5152
▁accepting	-5153
▁creations	-5154
▁gratitude	-5155
▁otherwise	-5156
▁approaches	-5157
▁companions	-5158
▁constantly	-5159
▁operations	-5160
▁cooperation	-5161
▁unorganized	-5162
▁wonderfully	-5163
▁discouraging	-5164
▁disagreements	-5165
aff	-5166
ify	-5167
urt	-5168
yst	-5169
▁By	-5170
rams	-5171
acked	-5172
oping	-5173
tings	-5174
▁bubb	-5175
▁buzz	-5176
▁hass	-5177
▁hats	-5178
▁muse	-5179
▁rats	-5180
ipping	-5181
isting	-5182
▁Child	-5183
▁distr	-5184
▁names	-5185
▁repea	-5186
▁rooms	-5187
▁scare	-5188
▁scent	-5189
▁unful	-5190
▁unite	-5191
▁clears	-5192
▁fairly	-5193
▁immedi	-5194
▁modern	-5195
▁wished	-5196
earching	-5197
▁biggest	-5198
▁candles	-5199
▁devices	-5200
▁farming	-5201
▁guiding	-5202
▁holiday	-5203
▁lacking	-5204
▁outings	-5205
▁oversha	-5206
▁sending	-5207
▁stopped	-5208
▁Visiting	-5209
▁desserts	-5210
▁finances	-5211
▁injuries	-5212
▁sickness	-5213
▁providing	-5214
▁unfulfill	-5215
▁incredible	-5216
▁remarkable	-5217
▁entertaining	-5218
▁observations	-5219
▁entertainment	-5220
▁unfortunately	-5221
ror	-5222
▁Bl	-5223
▁Enc	-5224
▁aim	-5225
▁bri	-5226
▁spl	-5227
manag	-5228
ograp	-5229
▁Miss	-5230
▁Snee	-5231
▁arms	-5232
▁crit	-5233
▁cups	-5234
▁guns	-5235
▁pace	-5236
▁pill	-5237
▁wing	-5238
engers	-5239
▁Birds	-5240
▁bills	-5241
▁diets	-5242
▁dusty	-5243
▁goods	-5244
▁sneak	-5245
riendly	-5246
ritious	-5247
▁burned	-5248
▁guests	-5249
▁hassle	-5250
▁judged	-5251
▁passed	-5252
▁source	-5253
▁stable	-5254
▁waking	-5255
▁Certain	-5256
▁Missing	-5257
▁accompl	-5258
▁arching	-5259
▁gesture	-5260
▁goodbye	-5261
▁instant	-5262
▁painted	-5263
▁remains	-5264
▁shelter	-5265
▁smashed	-5266
▁sneezed	-5267
▁unmanag	-5268
▁willing	-5269
▁younger	-5270
▁Sneezing	-5271
▁comforts	-5272
▁cushions	-5273
▁decorate	-5274
▁programs	-5275
▁settings	-5276
▁treating	-5277
▁allergies	-5278
▁highlight	-5279
▁responses	-5280
▁interested	-5281
▁nutritious	-5282
▁passengers	-5283
▁Encouraging	-5284
▁attractions	-5285
▁preparation	-5286
▁thoughtless	-5287
▁combinations	-5288
▁unmanageable	-5289
▁interruptions	-5290
▁Q	-5291
gue	-5292
ued	-5293
▁Ad	-5294
▁Ag	-5295
▁Al	-5296
apid	-5297
itiz	-5298
ster	-5299
▁age	-5300
▁dur	-5301
using	-5302
▁Dark	-5303
▁bits	-5304
▁desk	-5305
▁docu	-5306
▁pool	-5307
▁toes	-5308
▁vast	-5309
▁writ	-5310
▁boots	-5311
▁rapid	-5312
▁stain	-5313
▁telev	-5314
ibility	-5315
▁annoys	-5316
▁crunch	-5317
▁invest	-5318
▁louder	-5319
▁settle	-5320
▁softly	-5321
▁talent	-5322
▁walked	-5323
▁Washing	-5324
▁endings	-5325
▁needles	-5326
▁readers	-5327
▁scarier	-5328
▁Worrying	-5329
▁audience	-5330
▁distress	-5331
▁fearsome	-5332
▁offering	-5333
▁overshad	-5334
▁purposes	-5335
▁capturing	-5336
▁cherished	-5337
▁following	-5338
▁practical	-5339
▁promoting	-5340
▁repeating	-5341
▁travelers	-5342
▁television	-5343
▁threatening	-5344
lpt	-5345
noc	-5346
onf	-5347
▁Or	-5348
bled	-5349
resp	-5350
ulpt	-5351
▁cre	-5352
▁cyc	-5353
▁mad	-5354
▁urg	-5355
icity	-5356
ulner	-5357
▁Grow	-5358
▁adap	-5359
▁aren	-5360
▁empt	-5361
▁pour	-5362
▁puts	-5363
▁stur	-5364
▁tear	-5365
▁wore	-5366
anting	-5367
ficial	-5368
ipment	-5369
olving	-5370
▁flows	-5371
▁innoc	-5372
▁plain	-5373
▁towns	-5374
▁twice	-5375
▁woods	-5376
▁coping	-5377
▁cracks	-5378
▁doubts	-5379
▁drives	-5380
▁embarr	-5381
▁object	-5382
▁plates	-5383
▁sculpt	-5384
▁beaches	-5385
▁educate	-5386
▁futures	-5387
▁kicking	-5388
▁markets	-5389
▁matches	-5390
▁parties	-5391
▁pumping	-5392
▁restore	-5393
▁studies	-5394
▁holidays	-5395
▁pressing	-5396
▁warnings	-5397
▁equipment	-5398
▁finishing	-5399
▁mentioned	-5400
▁neglected	-5401
▁paintings	-5402
▁photograp	-5403
▁processes	-5404
▁satisfied	-5405
▁standards	-5406
▁strengths	-5407
▁affordable	-5408
▁appointment	-5409
te	-5410
che	-5411
ees	-5412
mag	-5413
owl	-5414
unk	-5415
atue	-5416
stal	-5417
tens	-5418
▁Saf	-5419
▁cou	-5420
▁icy	-5421
▁stu	-5422
▁van	-5423
istic	-5424
kward	-5425
odies	-5426
ounds	-5427
▁Both	-5428
▁Imag	-5429
▁bowl	-5430
▁eleg	-5431
▁orig	-5432
▁vibe	-5433
ightly	-5434
istent	-5435
riving	-5436
▁Bring	-5437
▁While	-5438
▁aside	-5439
▁eager	-5440
▁fence	-5441
▁flood	-5442
▁grime	-5443
▁grown	-5444
▁lucky	-5445
▁squir	-5446
alities	-5447
▁Agreed	-5448
▁Safety	-5449
▁Spring	-5450
▁floors	-5451
▁mostly	-5452
▁rotten	-5453
▁shakes	-5454
▁statue	-5455
▁strive	-5456
▁stroll	-5457
▁vulner	-5458
▁Comfort	-5459
▁Connect	-5460
▁Hearing	-5461
▁Letting	-5462
▁Resting	-5463
▁cruelty	-5464
▁genuine	-5465
▁liquids	-5466
▁screens	-5467
▁tickets	-5468
▁unready	-5469
▁Bringing	-5470
▁Children	-5471
▁comments	-5472
▁disrupts	-5473
▁humidity	-5474
▁melodies	-5475
▁tempting	-5476
▁unrecogn	-5477
▁tradition	-5478
▁background	-5479
▁overshadow	-5480
▁unkindness	-5481
▁combination	-5482
▁opportunity	-5483
▁possibility	-5484
▁professional	-5485
bre	-5486
equ	-5487
for	-5488
gly	-5489
isp	-5490
let	-5491
sit	-5492
ums	-5493
ups	-5494
▁On	-5495
▁di	-5496
▁fu	-5497
cell	-5498
cies	-5499
cing	-5500
esty	-5501
onom	-5502
ords	-5503
uses	-5504
▁Pre	-5505
▁hug	-5506
akers	-5507
osyst	-5508
▁Join	-5509
▁Very	-5510
▁bare	-5511
▁boil	-5512
▁boun	-5513
▁cafe	-5514
▁chef	-5515
▁libr	-5516
▁nutr	-5517
▁pond	-5518
▁sink	-5519
▁ugly	-5520
encies	-5521
▁chose	-5522
▁citiz	-5523
▁hesit	-5524
▁noses	-5525
▁sauce	-5526
▁stock	-5527
ductive	-5528
ressing	-5529
tenance	-5530
▁Moving	-5531
▁adults	-5532
▁attemp	-5533
▁candle	-5534
▁creeps	-5535
▁crying	-5536
▁drains	-5537
▁mental	-5538
▁nostal	-5539
▁recall	-5540
▁screen	-5541
▁shells	-5542
▁stayed	-5543
▁thanks	-5544
▁thumbs	-5545
▁Joining	-5546
▁Stories	-5547
▁Wearing	-5548
▁Weather	-5549
▁awkward	-5550
▁balloon	-5551
▁bicycle	-5552
▁bubbles	-5553
▁budgets	-5554
▁created	-5555
▁dentist	-5556
▁ecosyst	-5557
▁judging	-5558
▁lifesty	-5559
▁shocked	-5560
▁sunsets	-5561
▁telling	-5562
▁chalking	-5563
▁citizens	-5564
▁disgusts	-5565
▁imagined	-5566
▁improved	-5567
▁joyfully	-5568
▁shouting	-5569
▁supports	-5570
▁unkindly	-5571
▁unknowns	-5572
▁nutrition	-5573
▁religions	-5574
▁successes	-5575
▁acceptable	-5576
▁beneficial	-5577
▁adjustments	-5578
▁comfortably	-5579
▁immediately	-5580
▁maintenance	-5581
▁recognizing	-5582
▁unproductive	-5583
▁experimenting	-5584
asy	-5585
mat	-5586
nal	-5587
wal	-5588
▁As	-5589
▁Qu	-5590
ales	-5591
iers	-5592
inal	-5593
rigu	-5594
ties	-5595
ucky	-5596
▁Res	-5597
▁dut	-5598
▁ech	-5599
▁tim	-5600
acles	-5601
capes	-5602
eared	-5603
ialog	-5604
overs	-5605
sweet	-5606
▁Cats	-5607
▁ages	-5608
▁bold	-5609
▁maps	-5610
▁nurt	-5611
▁odor	-5612
▁pots	-5613
▁wasn	-5614
apping	-5615
▁Today	-5616
▁burnt	-5617
▁flick	-5618
▁input	-5619
▁puppy	-5620
▁rides	-5621
▁sever	-5622
▁staff	-5623
▁tells	-5624
riguing	-5625
▁Hoping	-5626
▁Strong	-5627
▁altern	-5628
▁battle	-5629
▁dialog	-5630
▁econom	-5631
▁effici	-5632
▁resist	-5633
▁result	-5634
▁ripple	-5635
▁sturdy	-5636
▁thinks	-5637
▁Driving	-5638
▁Perfect	-5639
▁arguing	-5640
▁bravely	-5641
▁buzzing	-5642
▁classes	-5643
▁dismiss	-5644
▁locking	-5645
▁melting	-5646
▁promise	-5647
▁symbols	-5648
▁uncover	-5649
▁winning	-5650
▁attempts	-5651
▁catching	-5652
▁evenings	-5653
▁football	-5654
▁innocent	-5655
▁kitchens	-5656
▁restless	-5657
▁troubled	-5658
▁twisting	-5659
▁Happiness	-5660
▁Searching	-5661
▁birthdays	-5662
▁qualities	-5663
▁annoyances	-5664
▁decoration	-5665
▁expression	-5666
▁increasing	-5667
▁intriguing	-5668
▁sculptures	-5669
▁vulnerable	-5670
▁	-5671
e	-5672
t	-5673
a	-5674
o	-5675
n	-5676
s	-5677
i	-5678
r	-5679
h	-5680
l	-5681
d	-5682
u	-5683
g	-5684
y	-5685
m	-5686
c	-5687
f	-5688
w	-5689
p	-5690
b	-5691
k	-5692
.	-5693
I	-5694
,	-5695
v	-5696
j	-5697
Y	-5698
?	-5699
T	-5700
x	-5701
D	-5702
H	-5703
q	-5704
W	-5705
;	-5706
'	-5707
S	-5708
A	-5709
M	-5710
z	-5711
F	-5712
E	-5713
R	-5714
’	-5715
C	-5716
L	-5717
-	-5718
P	-5719
B	-5720
N	-5721
O	-5722
G	-5723
!	-5724
K	-5725
U	-5726
J	-5727
V	-5728
é	-5729
Q	-5730
/	-5731
"	-5732
]	-5733
<	-5734
[	-5735
>	-5736
ñ	-5737
:	-5738
—	-5739
‘	-5740
